{
  "!": 0,
  "\"": 1,
  "#": 2,
  "$": 3,
  "%": 4,
  "&": 5,
  "'": 6,
  "(": 7,
  ")": 8,
  "*": 9,
  "+": 10,
  ",": 11,
  "-": 12,
  ".": 13,
  "/": 14,
  "0": 15,
  "1": 16,
  "2": 17,
  "3": 18,
  "4": 19,
  "5": 20,
  "6": 21,
  "7": 22,
  "8": 23,
  "9": 24,
  ":": 25,
  ";": 26,
  "<": 27,
  "=": 28,
  ">": 29,
  "?": 30,
  "@": 31,
  "A": 32,
  "B": 33,
  "C": 34,
  "D": 35,
  "E": 36,
  "F": 37,
  "G": 38,
  "H": 39,
  "I": 40,
  "J": 41,
  "K": 42,
  "L": 43,
  "M": 44,
  "N": 45,
  "O": 46,
  "P": 47,
  "Q": 48,
  "R": 49,
  "S": 50,
  "T": 51,
  "U": 52,
  "V": 53,
  "W": 54,
  "X": 55,
  "Y": 56,
  "Z": 57,
  "[": 58,
  "\\": 59,
  "]": 60,
  "^": 61,
  "_": 62,
  "`": 63,
  "a": 64,
  "b": 65,
  "c": 66,
  "d": 67,
  "e": 68,
  "f": 69,
  "g": 70,
  "h": 71,
  "i": 72,
  "j": 73,
  "k": 74,
  "l": 75,
  "m": 76,
  "n": 77,
  "o": 78,
  "p": 79,
  "q": 80,
  "r": 81,
  "s": 82,
  "t": 83,
  "u": 84,
  "v": 85,
  "w": 86,
  "x": 87,
  "y": 88,
  "z": 89,
  "{": 90,
  "|": 91,
  "}": 92,
  "~": 93,
  "¡": 94,
  "¢": 95,
  "£": 96,
  "¤": 97,
  "¥": 98,
  "¦": 99,
  "§": 100,
  "¨": 101,
  "©": 102,
  "ª": 103,
  "«": 104,
  "¬": 105,
  "®": 106,
  "¯": 107,
  "°": 108,
  "±": 109,
  "²": 110,
  "³": 111,
  "´": 112,
  "µ": 113,
  "¶": 114,
  "·": 115,
  "¸": 116,
  "¹": 117,
  "º": 118,
  "»": 119,
  "¼": 120,
  "½": 121,
  "¾": 122,
  "¿": 123,
  "À": 124,
  "Á": 125,
  "Â": 126,
  "Ã": 127,
  "Ä": 128,
  "Å": 129,
  "Æ": 130,
  "Ç": 131,
  "È": 132,
  "É": 133,
  "Ê": 134,
  "Ë": 135,
  "Ì": 136,
  "Í": 137,
  "Î": 138,
  "Ï": 139,
  "Ð": 140,
  "Ñ": 141,
  "Ò": 142,
  "Ó": 143,
  "Ô": 144,
  "Õ": 145,
  "Ö": 146,
  "×": 147,
  "Ø": 148,
  "Ù": 149,
  "Ú": 150,
  "Û": 151,
  "Ü": 152,
  "Ý": 153,
  "Þ": 154,
  "ß": 155,
  "à": 156,
  "á": 157,
  "â": 158,
  "ã": 159,
  "ä": 160,
  "å": 161,
  "æ": 162,
  "ç": 163,
  "è": 164,
  "é": 165,
  "ê": 166,
  "ë": 167,
  "ì": 168,
  "í": 169,
  "î": 170,
  "ï": 171,
  "ð": 172,
  "ñ": 173,
  "ò": 174,
  "ó": 175,
  "ô": 176,
  "õ": 177,
  "ö": 178,
  "÷": 179,
  "ø": 180,
  "ù": 181,
  "ú": 182,
  "û": 183,
  "ü": 184,
  "ý": 185,
  "þ": 186,
  "ÿ": 187,
  "Ā": 188,
  "ā": 189,
  "Ă": 190,
  "ă": 191,
  "Ą": 192,
  "ą": 193,
  "Ć": 194,
  "ć": 195,
  "Ĉ": 196,
  "ĉ": 197,
  "Ċ": 198,
  "ċ": 199,
  "Č": 200,
  "č": 201,
  "Ď": 202,
  "ď": 203,
  "Đ": 204,
  "đ": 205,
  "Ē": 206,
  "ē": 207,
  "Ĕ": 208,
  "ĕ": 209,
  "Ė": 210,
  "ė": 211,
  "Ę": 212,
  "ę": 213,
  "Ě": 214,
  "ě": 215,
  "Ĝ": 216,
  "ĝ": 217,
  "Ğ": 218,
  "ğ": 219,
  "Ġ": 220,
  "ġ": 221,
  "Ģ": 222,
  "ģ": 223,
  "Ĥ": 224,
  "ĥ": 225,
  "Ħ": 226,
  "ħ": 227,
  "Ĩ": 228,
  "ĩ": 229,
  "Ī": 230,
  "ī": 231,
  "Ĭ": 232,
  "ĭ": 233,
  "Į": 234,
  "į": 235,
  "İ": 236,
  "ı": 237,
  "Ĳ": 238,
  "ĳ": 239,
  "Ĵ": 240,
  "ĵ": 241,
  "Ķ": 242,
  "ķ": 243,
  "ĸ": 244,
  "Ĺ": 245,
  "ĺ": 246,
  "Ļ": 247,
  "ļ": 248,
  "Ľ": 249,
  "ľ": 250,
  "Ŀ": 251,
  "ŀ": 252,
  "Ł": 253,
  "ł": 254,
  "Ń": 255,
  "ĠĠ": 256,
  "ĠĠĠĠ": 257,
  "in": 258,
  "Ġt": 259,
  "ĠĠĠĠĠĠĠĠ": 260,
  "er": 261,
  "ĠĠĠ": 262,
  "on": 263,
  "Ġa": 264,
  "re": 265,
  "at": 266,
  "st": 267,
  "en": 268,
  "or": 269,
  "Ġth": 270,
  "ĊĊ": 271,
  "Ġc": 272,
  "le": 273,
  "Ġs": 274,
  "it": 275,
  "an": 276,
  "ar": 277,
  "al": 278,
  "Ġthe": 279,
  "Ġp": 280,
  "Ġf": 281,
  "ou": 282,
  "Ġ=": 283,
  "is": 284,
  "ĠĠĠĠĠĠĠ": 285,
  "ing": 286,
  "es": 287,
  "Ġw": 288,
  "ion": 289,
  "ed": 290,
  "ic": 291,
  "Ġb": 292,
  "Ġd": 293,
  "et": 294,
  "Ġm": 295,
  "Ġo": 296,
  "ĉĉ": 297,
  "ro": 298,
  "as": 299,
  "el": 300,
  "ct": 301,
  "nd": 302,
  "Ġin": 303,
  "Ġh": 304,
  "ent": 305,
  "id": 306,
  "Ġn": 307,
  "am": 308,
  "ĠĠĠĠĠĠĠĠĠĠĠ": 309,
  "Ġto": 310,
  "Ġre": 311,
  "--": 312,
  "Ġ{": 313,
  "Ġof": 314,
  "om": 315,
  "im": 316,
  "čĊ": 317,
  "Ġ(": 318,
  "il": 319,
  "//": 320,
  "Ġand": 321,
  "ur": 322,
  "se": 323,
  "Ġl": 324,
  "ex": 325,
  "ĠS": 326,
  "ad": 327,
  "Ġ\"": 328,
  "ch": 329,
  "ut": 330,
  "if": 331,
  "**": 332,
  "Ġ}": 333,
  "em": 334,
  "ol": 335,
  "ĠĠĠĠĠĠĠĠĠĠĠĠĠĠĠĠ": 336,
  "th": 337,
  "Ġg": 338,
  "ig": 339,
  "iv": 340,
  "ce": 341,
  "od": 342,
  "Ġv": 343,
  "ate": 344,
  "ĠT": 345,
  "ag": 346,
  "ay": 347,
  "Ġ*": 348,
  "ot": 349,
  "us": 350,
  "ĠC": 351,
  "Ġst": 352,
  "ĠI": 353,
  "un": 354,
  "ul": 355,
  "ue": 356,
  "ĠA": 357,
  "ow": 358,
  "Ġ'": 359,
  "ew": 360,
  "Ġ<": 361,
  "ation": 362,
  "()": 363,
  "Ġfor": 364,
  "ab": 365,
  "ort": 366,
  "um": 367,
  "ame": 368,
  "Ġis": 369,
  "pe": 370,
  "tr": 371,
  "ck": 372,
  "Ġy": 373,
  "ist": 374,
  "----": 375,
  "he": 376,
  "Ġe": 377,
  "lo": 378,
  "ĠM": 379,
  "Ġbe": 380,
  "ers": 381,
  "Ġon": 382,
  "Ġcon": 383,
  "ap": 384,
  "ub": 385,
  "ĠP": 386,
  "ĠĠĠĠĠĠĠĠĠĠĠĠĠĠĠ": 387,
  "ass": 388,
  "int": 389,
  "ly": 390,
  "urn": 391,
  "Ġ$": 392,
  "av": 393,
  "port": 394,
  "ir": 395,
  "->": 396,
  "nt": 397,
  "ction": 398,
  "end": 399,
  "Ġde": 400,
  "ith": 401,
  "out": 402,
  "turn": 403,
  "our": 404,
  "ĠĠĠĠĠ": 405,
  "lic": 406,
  "res": 407,
  "pt": 408,
  "==": 409,
  "Ġthis": 410,
  "Ġwh": 411,
  "Ġif": 412,
  "ĠD": 413,
  "ver": 414,
  "age": 415,
  "ĠB": 416,
  "ht": 417,
  "ext": 418,
  "=\"": 419,
  "Ġthat": 420,
  "****": 421,
  "ĠR": 422,
  "Ġit": 423,
  "ess": 424,
  "ĠF": 425,
  "Ġr": 426,
  "os": 427,
  "and": 428,
  "Ġas": 429,
  "ect": 430,
  "ke": 431,
  "rom": 432,
  "Ġ//": 433,
  "con": 434,
  "ĠL": 435,
  "(\"": 436,
  "qu": 437,
  "lass": 438,
  "Ġwith": 439,
  "iz": 440,
  "de": 441,
  "ĠN": 442,
  "Ġal": 443,
  "op": 444,
  "up": 445,
  "get": 446,
  "ile": 447,
  "Ġan": 448,
  "ata": 449,
  "ore": 450,
  "ri": 451,
  "Ġpro": 452,
  "ĉĉĉĉ": 453,
  "ter": 454,
  "ain": 455,
  "ĠW": 456,
  "ĠE": 457,
  "Ġcom": 458,
  "Ġreturn": 459,
  "art": 460,
  "ĠH": 461,
  "ack": 462,
  "import": 463,
  "ublic": 464,
  "Ġor": 465,
  "est": 466,
  "ment": 467,
  "ĠG": 468,
  "able": 469,
  "Ġ-": 470,
  "ine": 471,
  "ill": 472,
  "ind": 473,
  "ere": 474,
  "::": 475,
  "ity": 476,
  "Ġ+": 477,
  "Ġtr": 478,
  "elf": 479,
  "ight": 480,
  "('": 481,
  "orm": 482,
  "ult": 483,
  "str": 484,
  "..": 485,
  "\",": 486,
  "Ġyou": 487,
  "ype": 488,
  "pl": 489,
  "Ġnew": 490,
  "Ġj": 491,
  "ĠĠĠĠĠĠĠĠĠĠĠĠĠĠĠĠĠĠĠ": 492,
  "Ġfrom": 493,
  "Ġex": 494,
  "ĠO": 495,
  "ld": 496,
  "Ġ[": 497,
  "oc": 498,
  "Ġse": 499,
  "Ġle": 500,
  "--------": 501,
  ".s": 502,
  "',": 503,
  "ant": 504,
  "Ġat": 505,
  "ase": 506,
  ".c": 507,
  "Ġch": 508,
  "</": 509,
  "ave": 510,
  "ang": 511,
  "Ġare": 512,
  "Ġint": 513,
  "_t": 514,
  "ert": 515,
  "ial": 516,
  "act": 517,
  "ive": 518,
  "ode": 519,
  "ost": 520,
  "Ġclass": 521,
  "Ġnot": 522,
  "og": 523,
  "ord": 524,
  "alue": 525,
  "all": 526,
  "ff": 527,
  "ont": 528,
  "ime": 529,
  "are": 530,
  "ĠU": 531,
  "Ġpr": 532,
  "Ġ:": 533,
  "ies": 534,
  "ize": 535,
  "ure": 536,
  "Ġby": 537,
  "ire": 538,
  ".p": 539,
  "Ġsh": 540,
  "ice": 541,
  "ast": 542,
  "ption": 543,
  "tring": 544,
  "ok": 545,
  "__": 546,
  "cl": 547,
  "##": 548,
  "Ġhe": 549,
  "ard": 550,
  ").": 551,
  "Ġ@": 552,
  "iew": 553,
  "ĉĉĉ": 554,
  "Ġwas": 555,
  "ip": 556,
  "this": 557,
  "Ġu": 558,
  "ĠThe": 559,
  "ide": 560,
  "ace": 561,
  "ib": 562,
  "ac": 563,
  "rou": 564,
  "Ġwe": 565,
  "ject": 566,
  "Ġpublic": 567,
  "ak": 568,
  "ve": 569,
  "ath": 570,
  "oid": 571,
  "Ġ=>": 572,
  "ust": 573,
  "que": 574,
  "Ġres": 575,
  "))": 576,
  "'s": 577,
  "Ġk": 578,
  "ans": 579,
  "yst": 580,
  "unction": 581,
  "********": 582,
  "Ġi": 583,
  "Ġus": 584,
  "pp": 585,
  "one": 586,
  "ail": 587,
  "====": 588,
  "name": 589,
  "Ġstr": 590,
  "Ġ/": 591,
  "Ġ&": 592,
  "ach": 593,
  "div": 594,
  "ystem": 595,
  "ell": 596,
  "Ġhave": 597,
  "err": 598,
  "ould": 599,
  "ull": 600,
  "pon": 601,
  "ĠJ": 602,
  "_p": 603,
  "Ġ==": 604,
  "ign": 605,
  "St": 606,
  "Ġpl": 607,
  "form": 608,
  "put": 609,
  "ount": 610,
  "dd": 611,
  "ite": 612,
  "Ġget": 613,
  "rr": 614,
  "ome": 615,
  "aram": 616,
  "cc": 617,
  "Ġ*/": 618,
  "ER": 619,
  "In": 620,
  "les": 621,
  "_s": 622,
  "ong": 623,
  "ie": 624,
  "Ġcan": 625,
  "ĠV": 626,
  "erv": 627,
  "pr": 628,
  "Ġun": 629,
  "row": 630,
  "ber": 631,
  "Ġdo": 632,
  "ll": 633,
  "Ġel": 634,
  "Ġself": 635,
  "ated": 636,
  "ary": 637,
  "Ġ.": 638,
  "']": 639,
  "ud": 640,
  "Ġen": 641,
  "ĠTh": 642,
  "ĠĠĠĠĠĠĠĠĠĠĠĠĠĠĠĠĠĠĠĠĠĠĠ": 643,
  "te": 644,
  "_c": 645,
  "uct": 646,
  "Ġab": 647,
  "ork": 648,
  ".get": 649,
  "Ġ#": 650,
  "aw": 651,
  "ress": 652,
  "ob": 653,
  "Name": 654,
  "app": 655,
  "['": 656,
  "Ġall": 657,
  "ory": 658,
  "ition": 659,
  "ance": 660,
  "ear": 661,
  "Ġcont": 662,
  "vent": 663,
  "ia": 664,
  "Ġwill": 665,
  "IN": 666,
  "ĠĠĠĠĠĠĠĠĠ": 667,
  "return": 668,
  "Ġ</": 669,
  "data": 670,
  "Re": 671,
  "ple": 672,
  "ild": 673,
  "ther": 674,
  "Ġyour": 675,
  "($": 676,
  "Ġout": 677,
  "),": 678,
  "Ġhas": 679,
  "String": 680,
  "so": 681,
  "Ġup": 682,
  "ax": 683,
  "Ġdef": 684,
  "Ġbo": 685,
  "ge": 686,
  "alse": 687,
  "ON": 688,
  "per": 689,
  "ich": 690,
  "Ġbut": 691,
  "ĠĊ": 692,
  "Ġ_": 693,
  "_m": 694,
  "add": 695,
  "quest": 696,
  "odel": 697,
  "self": 698,
  "ery": 699,
  "ft": 700,
  "ens": 701,
  "////": 702,
  "ake": 703,
  ".C": 704,
  "Ġgo": 705,
  "Ġfunction": 706,
  "ĠK": 707,
  "ivate": 708,
  "Ġim": 709,
  "Ġconst": 710,
  ".t": 711,
  "Ġvoid": 712,
  "Ġset": 713,
  "ĠSystem": 714,
  "cri": 715,
  "li": 716,
  "ĉif": 717,
  ".m": 718,
  "ally": 719,
  "set": 720,
  "ep": 721,
  "bo": 722,
  "def": 723,
  "Ġme": 724,
  "Ġ!": 725,
  "atch": 726,
  "\">": 727,
  "ec": 728,
  "ĠIn": 729,
  "ph": 730,
  "Ġ|": 731,
  "_f": 732,
  "Ġvar": 733,
  "ence": 734,
  "Id": 735,
  "ree": 736,
  "ink": 737,
  "lect": 738,
  "ug": 739,
  "eth": 740,
  "Ġelse": 741,
  "----------------": 742,
  "cont": 743,
  "Ġso": 744,
  "atic": 745,
  "Ġlo": 746,
  "pro": 747,
  "ton": 748,
  "ss": 749,
  "own": 750,
  "abel": 751,
  "oint": 752,
  "ous": 753,
  "eld": 754,
  "ST": 755,
  "The": 756,
  "ĠĠĠĠĠĠĠĠĠĠĠĠĠĠĠĠĠĠĠĠĠĠĠĠĠĠĠĠĠĠĠĠ": 757,
  "RE": 758,
  "\":": 759,
  "olor": 760,
  "tp": 761,
  "eg": 762,
  "key": 763,
  "ude": 764,
  "ĠSt": 765,
  "ound": 766,
  "Ġar": 767,
  "ener": 768,
  "ser": 769,
  "bject": 770,
  "essage": 771,
  "fer": 772,
  "Ġmore": 773,
  "ations": 774,
  "ents": 775,
  "Ġhis": 776,
  "Ġthey": 777,
  ".S": 778,
  "ĠY": 779,
  "use": 780,
  "ne": 781,
  "ish": 782,
  "old": 783,
  "_d": 784,
  "io": 785,
  "ield": 786,
  "Ġper": 787,
  "Cont": 788,
  "ings": 789,
  "####": 790,
  "Ġdata": 791,
  "Ġsa": 792,
  "ef": 793,
  "fo": 794,
  "Ġone": 795,
  "eng": 796,
  "Ġdis": 797,
  "AT": 798,
  "Ġname": 799,
  "Ġtrue": 800,
  "val": 801,
  "led": 802,
  ".f": 803,
  "Ġne": 804,
  "Ġend": 805,
  ".T": 806,
  "cre": 807,
  "ark": 808,
  "log": 809,
  "Ex": 810,
  "error": 811,
  "_id": 812,
  "urre": 813,
  "ange": 814,
  "Ġnull": 815,
  "rray": 816,
  "Ġmy": 817,
  "pan": 818,
  "ict": 819,
  "ator": 820,
  "View": 821,
  "List": 822,
  "ĉreturn": 823,
  "Ġpre": 824,
  "Ġx": 825,
  "clude": 826,
  "arg": 827,
  "ov": 828,
  ".h": 829,
  "Ġ>": 830,
  "Ġtheir": 831,
  "')": 832,
  "irst": 833,
  "ick": 834,
  "gh": 835,
  "LE": 836,
  "OR": 837,
  "Ġprivate": 838,
  "tem": 839,
  "čĊčĊ": 840,
  "user": 841,
  "Ġ)": 842,
  "com": 843,
  ".A": 844,
  "Ġid": 845,
  "read": 846,
  "Ġwho": 847,
  "_b": 848,
  "Ġtime": 849,
  "Ġman": 850,
  "ry": 851,
  "========": 852,
  "roup": 853,
  "rop": 854,
  "public": 855,
  "vel": 856,
  "umber": 857,
  "ble": 858,
  "Ġwhich": 859,
  "****************": 860,
  "Ġany": 861,
  "Ġfalse": 862,
  "we": 863,
  "Ġvalue": 864,
  "Ġli": 865,
  "\")": 866,
  "nder": 867,
  "gr": 868,
  "Ġno": 869,
  "param": 870,
  "fig": 871,
  ".com": 872,
  "Ġapp": 873,
  "_l": 874,
  "ions": 875,
  ".D": 876,
  "ĠCh": 877,
  "Ġabout": 878,
  "Ġadd": 879,
  "Ġsu": 880,
  "Ġstring": 881,
  "ID": 882,
  "Ġover": 883,
  "string": 884,
  ".l": 885,
  "ource": 886,
  "_C": 887,
  "Ġqu": 888,
  "ĠString": 889,
  "ca": 890,
  "SE": 891,
  "Ġro": 892,
  "sh": 893,
  "ual": 894,
  "Type": 895,
  "son": 896,
  "new": 897,
  "ern": 898,
  "Ġag": 899,
  "AR": 900,
  "].": 901,
  "Ġ?": 902,
  "ical": 903,
  "Ġdes": 904,
  "uth": 905,
  "ix": 906,
  "ays": 907,
  "Ġtype": 908,
  "'t": 909,
  "ault": 910,
  "Ġinter": 911,
  "var": 912,
  ".b": 913,
  "Ġpart": 914,
  ".d": 915,
  "urrent": 916,
  "IT": 917,
  "EN": 918,
  "enc": 919,
  "(f": 920,
  "ra": 921,
  "value": 922,
  "cho": 923,
  "utton": 924,
  "ose": 925,
  "Ġ!=": 926,
  "ater": 927,
  "reate": 928,
  "oll": 929,
  "pos": 930,
  "yle": 931,
  "ng": 932,
  "AL": 933,
  "using": 934,
  "ames": 935,
  "ates": 936,
  "ely": 937,
  "Ġwork": 938,
  "Ġem": 939,
  "inal": 940,
  "Ġsp": 941,
  "Ġwhen": 942,
  ".set": 943,
  "ĠĠĠĠĠĠ": 944,
  "to": 945,
  "quire": 946,
  "indow": 947,
  "lement": 948,
  "pect": 949,
  "ash": 950,
  "[i": 951,
  "Ġuse": 952,
  ".F": 953,
  "pec": 954,
  "Ġad": 955,
  "ove": 956,
  "ception": 957,
  "ength": 958,
  "include": 959,
  "ader": 960,
  "ĠĠĠĠĠĠĠĠĠĠĠĠĠĠĠĠĠĠĠĠĠĠĠĠĠĠĠ": 961,
  "atus": 962,
  "Th": 963,
  "itle": 964,
  "rit": 965,
  "void": 966,
  "().": 967,
  "Ġoff": 968,
  "Ġother": 969,
  "Ġ&&": 970,
  "ms": 971,
  "Ġbeen": 972,
  "Ġte": 973,
  "ml": 974,
  "co": 975,
  "nc": 976,
  "ervice": 977,
  "Ġ%": 978,
  "ann": 979,
  "ade": 980,
  "ĊĊĊĊ": 981,
  "lock": 982,
  "const": 983,
  "ponse": 984,
  "Ġsup": 985,
  "++": 986,
  "date": 987,
  "Ġacc": 988,
  "Ġhad": 989,
  "Ġbu": 990,
  "ĠRe": 991,
  "Ġwere": 992,
  "Ġfile": 993,
  "Ġwould": 994,
  "ven": 995,
  "iss": 996,
  "Ġour": 997,
  "class": 998,
  "raw": 999,
  "Ġyear": 1000,
  "Data": 1001,
  "Ġval": 1002,
  "Ġsome": 1003,
  "fter": 1004,
  "ys": 1005,
  "Ġ///": 1006,
  "round": 1007,
  "view": 1008,
  "Ġpe": 1009,
  "Ġthere": 1010,
  "Ġsaid": 1011,
  "du": 1012,
  "of": 1013,
  "line": 1014,
  "/*": 1015,
  "duct": 1016,
  "Ġher": 1017,
  "ĠĠĠĠĠĠĠĠĠĠĠĠĠ": 1018,
  "Res": 1019,
  "Ġco": 1020,
  "Ġcomm": 1021,
  "ise": 1022,
  "min": 1023,
  "ĠĠĠĠĊ": 1024,
  "#include": 1025,
  "ethod": 1026,
  ".P": 1027,
  "ute": 1028,
  "Ġass": 1029,
  "Int": 1030,
  "ask": 1031,
  "loc": 1032,
  "Ġlike": 1033,
  "ody": 1034,
  "Ġlet": 1035,
  "load": 1036,
  "Ġam": 1037,
  "rol": 1038,
  "Ġgr": 1039,
  "yp": 1040,
  "Ġalso": 1041,
  "ĠIt": 1042,
  "url": 1043,
  "ific": 1044,
  "ors": 1045,
  "_P": 1046,
  "_n": 1047,
  "igh": 1048,
  "Ġthan": 1049,
  "Com": 1050,
  "AN": 1051,
  "UL": 1052,
  "ating": 1053,
  "ĠThis": 1054,
  "ref": 1055,
  "_S": 1056,
  "Ġstatic": 1057,
  "roll": 1058,
  "Ġjust": 1059,
  "Ġresult": 1060,
  "ian": 1061,
  "idth": 1062,
  "Ġthem": 1063,
  "der": 1064,
  "reak": 1065,
  "Con": 1066,
  "://": 1067,
  "ule": 1068,
  "...": 1069,
  "arch": 1070,
  "ement": 1071,
  "Ġ<<": 1072,
  "ush": 1073,
  "ense": 1074,
  "arr": 1075,
  "Ġinto": 1076,
  "cess": 1077,
  "amp": 1078,
  "ied": 1079,
  "ument": 1080,
  "Ġ\\": 1081,
  "],": 1082,
  "wo": 1083,
  "als": 1084,
  "Ġwhat": 1085,
  "anc": 1086,
  "Value": 1087,
  "='": 1088,
  "olum": 1089,
  "Ġpos": 1090,
  "ages": 1091,
  "ayer": 1092,
  "Ġsc": 1093,
  "ues": 1094,
  "_T": 1095,
  "Ġlist": 1096,
  "(s": 1097,
  "Ġcase": 1098,
  "Ch": 1099,
  "ĉĉĉĉĉ": 1100,
  "////////": 1101,
  "ponent": 1102,
  "Ġz": 1103,
  "Ġkn": 1104,
  "let": 1105,
  "DE": 1106,
  "red": 1107,
  "Ġfe": 1108,
  "Ġ,": 1109,
  "(t": 1110,
  "Ġfirst": 1111,
  "word": 1112,
  "Ġimport": 1113,
  "Ġact": 1114,
  "Ġchar": 1115,
  "CT": 1116,
  "ĠTr": 1117,
  "ople": 1118,
  "={": 1119,
  "ĉf": 1120,
  "ient": 1121,
  "cent": 1122,
  ".j": 1123,
  "lection": 1124,
  "Ġonly": 1125,
  "Ġprint": 1126,
  "mer": 1127,
  ".W": 1128,
  "ock": 1129,
  "Ġ--": 1130,
  "Text": 1131,
  "Ġop": 1132,
  "ank": 1133,
  "Ġits": 1134,
  "Ġback": 1135,
  "[\"": 1136,
  "Ġneed": 1137,
  "Ġcl": 1138,
  "Ġsub": 1139,
  "Ġla": 1140,
  "((": 1141,
  ".\"": 1142,
  "Object": 1143,
  "Ġstart": 1144,
  "file": 1145,
  "(self": 1146,
  "ner": 1147,
  "ey": 1148,
  "Ġuser": 1149,
  "Ġent": 1150,
  "ĠCom": 1151,
  "its": 1152,
  "ĠCon": 1153,
  "ouble": 1154,
  "ower": 1155,
  "item": 1156,
  "very": 1157,
  "ĠWe": 1158,
  "lick": 1159,
  "ĠQ": 1160,
  "php": 1161,
  "ttp": 1162,
  "':": 1163,
  "ics": 1164,
  "Ġunder": 1165,
  ".L": 1166,
  ");": 1167,
  "ices": 1168,
  "Ġreg": 1169,
  "ĉpublic": 1170,
  "SS": 1171,
  "Ġthen": 1172,
  "reat": 1173,
  "ious": 1174,
  ".G": 1175,
  "ek": 1176,
  "irect": 1177,
  "heck": 1178,
  "cript": 1179,
  "ning": 1180,
  "ĠUn": 1181,
  "Ġmay": 1182,
  "ĠWh": 1183,
  "Bo": 1184,
  "Item": 1185,
  "struct": 1186,
  ".st": 1187,
  "ream": 1188,
  "ible": 1189,
  "loat": 1190,
  "Ġorg": 1191,
  "und": 1192,
  "sum": 1193,
  "_in": 1194,
  "../": 1195,
  "_M": 1196,
  "Ġhow": 1197,
  "rite": 1198,
  "To": 1199,
  "ww": 1200,
  "Ġpeople": 1201,
  "index": 1202,
  ".n": 1203,
  "http": 1204,
  "(m": 1205,
  "ector": 1206,
  "Ġind": 1207,
  "Ġjav": 1208,
  "ĠHe": 1209,
  "_st": 1210,
  "ful": 1211,
  "ole": 1212,
  "Ġshould": 1213,
  "opy": 1214,
  "elp": 1215,
  "ier": 1216,
  "_name": 1217,
  "erson": 1218,
  "ION": 1219,
  "ote": 1220,
  "Ġtest": 1221,
  "Ġbet": 1222,
  "rror": 1223,
  "ular": 1224,
  "bs": 1225,
  "ting": 1226,
  "Ġmake": 1227,
  "Tr": 1228,
  "Ġafter": 1229,
  "arget": 1230,
  "RO": 1231,
  "olumn": 1232,
  "rc": 1233,
  "_re": 1234,
  "define": 1235,
  "Ġright": 1236,
  "right": 1237,
  "day": 1238,
  "Ġlong": 1239,
  "[]": 1240,
  "(p": 1241,
  "td": 1242,
  "cond": 1243,
  "ĠPro": 1244,
  "Ġrem": 1245,
  "ptions": 1246,
  "vid": 1247,
  ".g": 1248,
  "Ġext": 1249,
  "Ġ__": 1250,
  "pace": 1251,
  "mp": 1252,
  "Ġmin": 1253,
  "stance": 1254,
  "air": 1255,
  "action": 1256,
  "wh": 1257,
  "type": 1258,
  "util": 1259,
  "ait": 1260,
  "<?": 1261,
  "IC": 1262,
  "text": 1263,
  "Ġph": 1264,
  "Ġfl": 1265,
  ".M": 1266,
  "ccess": 1267,
  "br": 1268,
  "fore": 1269,
  "ersion": 1270,
  ".re": 1271,
  "ateg": 1272,
  "Ġloc": 1273,
  "ins": 1274,
  "-s": 1275,
  "trib": 1276,
  "ĠInt": 1277,
  "Ġarray": 1278,
  ",\"": 1279,
  "Pro": 1280,
  "(c": 1281,
  "ession": 1282,
  "Ġshe": 1283,
  "\"]": 1284,
  "aph": 1285,
  "Ġexp": 1286,
  "erty": 1287,
  "ĠSe": 1288,
  "Ġpar": 1289,
  "unc": 1290,
  "ET": 1291,
  "Ġread": 1292,
  "print": 1293,
  "Ġrel": 1294,
  "Ġform": 1295,
  "Ġdr": 1296,
  "Exception": 1297,
  "input": 1298,
  "Ġtrans": 1299,
  "########": 1300,
  "order": 1301,
  "By": 1302,
  "Ġaw": 1303,
  "ities": 1304,
  "uff": 1305,
  "play": 1306,
  ".add": 1307,
  "Ġwant": 1308,
  "Ġcomp": 1309,
  "ments": 1310,
  "Ġ||": 1311,
  "az": 1312,
  "be": 1313,
  "Ġnumber": 1314,
  "Ġrequire": 1315,
  "ĠEx": 1316,
  "Ġcol": 1317,
  "Ġkey": 1318,
  "ember": 1319,
  "Ġtwo": 1320,
  "Ġsize": 1321,
  "Ġwhere": 1322,
  "UT": 1323,
  "result": 1324,
  "ĠĠĠĠĠĠĠĠĠĠĠĠĠĠĠĠĠĠĠĠĠĠĠĠĠĠĠĠĠĠĠ": 1325,
  "ough": 1326,
  "orld": 1327,
  "ood": 1328,
  "uch": 1329,
  "ative": 1330,
  "ger": 1331,
  "arent": 1332,
  "Ġ/*": 1333,
  "Ġarg": 1334,
  "Ġwhile": 1335,
  "(this": 1336,
  "Ġrec": 1337,
  "Ġdif": 1338,
  "State": 1339,
  "Ġspec": 1340,
  "ride": 1341,
  "_F": 1342,
  "Ġlook": 1343,
  "AM": 1344,
  "ility": 1345,
  "eter": 1346,
  "ĊĊĊ": 1347,
  "ayout": 1348,
  "--------------------------------": 1349,
  "ager": 1350,
  "Ġcould": 1351,
  "Ġbr": 1352,
  "ends": 1353,
  "ures": 1354,
  "Ġknow": 1355,
  "ets": 1356,
  "ĠIf": 1357,
  "ĠSh": 1358,
  ".w": 1359,
  "back": 1360,
  "Ġser": 1361,
  "Ġ+=": 1362,
  "Ġfr": 1363,
  "Ġhand": 1364,
  "Ind": 1365,
  "ULL": 1366,
  "Im": 1367,
  "Ġmost": 1368,
  "Ġtry": 1369,
  "Ġnow": 1370,
  "rough": 1371,
  "ackage": 1372,
  "Ġhim": 1373,
  "._": 1374,
  "ify": 1375,
  "Ġbreak": 1376,
  "ren": 1377,
  "#define": 1378,
  "itt": 1379,
  "Ġap": 1380,
  "ĉc": 1381,
  "(n": 1382,
  "ĠYou": 1383,
  "-m": 1384,
  "Ġevery": 1385,
  "ustom": 1386,
  "lient": 1387,
  "ocument": 1388,
  "cription": 1389,
  "Error": 1390,
  "-b": 1391,
  "][": 1392,
  "trans": 1393,
  "Ġpoint": 1394,
  "Ġstd": 1395,
  "Ġfil": 1396,
  "Time": 1397,
  "Ġmod": 1398,
  "Ġ->": 1399,
  "Ġerror": 1400,
  "ah": 1401,
  "Ġtext": 1402,
  "roller": 1403,
  "lose": 1404,
  "ql": 1405,
  "Ġpol": 1406,
  "></": 1407,
  "Ġshow": 1408,
  "User": 1409,
  "ased": 1410,
  "Ġfind": 1411,
  "ED": 1412,
  "span": 1413,
  "enu": 1414,
  "Ġcurrent": 1415,
  "Ġused": 1416,
  "cept": 1417,
  "clud": 1418,
  "Ġplay": 1419,
  "Ġlog": 1420,
  "ution": 1421,
  "fl": 1422,
  "Ġsee": 1423,
  "indows": 1424,
  "Ġhelp": 1425,
  "Ġthese": 1426,
  "Ġpass": 1427,
  "Ġdown": 1428,
  "Ġeven": 1429,
  "ason": 1430,
  "uild": 1431,
  "from": 1432,
  "(d": 1433,
  "Ġbl": 1434,
  "label": 1435,
  "else": 1436,
  "Ġ(!": 1437,
  "ized": 1438,
  "(),": 1439,
  "Ġob": 1440,
  "Ġitem": 1441,
  "ump": 1442,
  "UR": 1443,
  "orn": 1444,
  "Ġdon": 1445,
  "Se": 1446,
  "man": 1447,
  "ample": 1448,
  "tn": 1449,
  "================": 1450,
  "He": 1451,
  "gram": 1452,
  "Ġdid": 1453,
  "wn": 1454,
  "_h": 1455,
  "iver": 1456,
  "Ġsm": 1457,
  "Ġthrough": 1458,
  "ĠAn": 1459,
  "che": 1460,
  "Ġinv": 1461,
  "ouse": 1462,
  "Ġes": 1463,
  "ĠNew": 1464,
  "export": 1465,
  "mary": 1466,
  "uto": 1467,
  "ler": 1468,
  "Ġlast": 1469,
  "Ġevent": 1470,
  "try": 1471,
  "ily": 1472,
  "igned": 1473,
  "ines": 1474,
  "ollow": 1475,
  "icense": 1476,
  "sole": 1477,
  "lear": 1478,
  "(int": 1479,
  "Ġagain": 1480,
  "Ġhigh": 1481,
  "html": 1482,
  "Index": 1483,
  "uthor": 1484,
  "Ġline": 1485,
  "Event": 1486,
  "_D": 1487,
  "Ġdoes": 1488,
  "itial": 1489,
  "Ġcr": 1490,
  "ars": 1491,
  "Ġtem": 1492,
  "cause": 1493,
  "face": 1494,
  "Ġ`": 1495,
  "_A": 1496,
  "Button": 1497,
  "ature": 1498,
  "ected": 1499,
  "ES": 1500,
  "ister": 1501,
  "ĉĊ": 1502,
  "Ġbefore": 1503,
  "ale": 1504,
  "other": 1505,
  "Ġbecause": 1506,
  "roid": 1507,
  "Ġed": 1508,
  "ik": 1509,
  "reg": 1510,
  "ĠDe": 1511,
  "Ġdist": 1512,
  "Ġstate": 1513,
  "Ġcons": 1514,
  "rint": 1515,
  "att": 1516,
  "Ġhere": 1517,
  "ined": 1518,
  "Ġfinal": 1519,
  "Ġ\"\"": 1520,
  "Key": 1521,
  "LO": 1522,
  "Ġdel": 1523,
  "pty": 1524,
  "thing": 1525,
  "ĠAnd": 1526,
  "Ġrun": 1527,
  "ĠX": 1528,
  "ym": 1529,
  ".app": 1530,
  "Ġvery": 1531,
  "ces": 1532,
  "_N": 1533,
  "ared": 1534,
  "ward": 1535,
  "list": 1536,
  "ited": 1537,
  "olog": 1538,
  "itch": 1539,
  "Box": 1540,
  "ife": 1541,
  "Ġac": 1542,
  "Ġmodel": 1543,
  "Ġmon": 1544,
  "Ġway": 1545,
  "lete": 1546,
  "Ġcall": 1547,
  "Ġatt": 1548,
  "Ġcal": 1549,
  "vert": 1550,
  "Ġdec": 1551,
  "lease": 1552,
  "oun": 1553,
  "fr": 1554,
  "formation": 1555,
  "etail": 1556,
  "Ġnum": 1557,
  "aj": 1558,
  "query": 1559,
  "Ġwell": 1560,
  "Ġobject": 1561,
  "ĠAs": 1562,
  "Ġyears": 1563,
  "Color": 1564,
  "IS": 1565,
  "Ġdefault": 1566,
  "Wh": 1567,
  "Ġins": 1568,
  "aint": 1569,
  "Ġjava": 1570,
  "Ġsim": 1571,
  "ĠAr": 1572,
  "mon": 1573,
  "til": 1574,
  "):": 1575,
  "Set": 1576,
  "atter": 1577,
  "Ġview": 1578,
  "Ġpres": 1579,
  "array": 1580,
  "We": 1581,
  "At": 1582,
  "Ġbel": 1583,
  "Ġmany": 1584,
  "Man": 1585,
  "ender": 1586,
  "Ġbeing": 1587,
  "Ġgood": 1588,
  "ĉĉĉĉĉĉ": 1589,
  "ational": 1590,
  "ware": 1591,
  ".log": 1592,
  "Ġusing": 1593,
  "_B": 1594,
  "Ġ:=": 1595,
  "_w": 1596,
  "ists": 1597,
  "lish": 1598,
  "Ġstud": 1599,
  "ĠAl": 1600,
  "Ġgu": 1601,
  "config": 1602,
  "uring": 1603,
  "time": 1604,
  "oken": 1605,
  "amespace": 1606,
  "Ġrequest": 1607,
  "Ġchild": 1608,
  "lob": 1609,
  "Ġparam": 1610,
  "Ġecho": 1611,
  "function": 1612,
  "********************************": 1613,
  "ps": 1614,
  "Element": 1615,
  "alk": 1616,
  "lication": 1617,
  "by": 1618,
  "Size": 1619,
  "rawing": 1620,
  "Ġperson": 1621,
  "ĠĠĠĠĠĠĠĠĠĠĠĠĠĠĠĠĠ": 1622,
  "\\n": 1623,
  "object": 1624,
  "ince": 1625,
  "En": 1626,
  "File": 1627,
  "uf": 1628,
  "ffect": 1629,
  "AC": 1630,
  "Ġstyle": 1631,
  "summary": 1632,
  "Ġque": 1633,
  "_r": 1634,
  "Ġ($": 1635,
  "Model": 1636,
  "ident": 1637,
  "Ġmethod": 1638,
  "IL": 1639,
  "ott": 1640,
  "less": 1641,
  "ING": 1642,
  "Ġ()": 1643,
  "Ġexpect": 1644,
  "ync": 1645,
  "package": 1646,
  "urs": 1647,
  "Ġprot": 1648,
  "./": 1649,
  "pre": 1650,
  "ma": 1651,
  "Ġsur": 1652,
  "Ġfound": 1653,
  "Info": 1654,
  "par": 1655,
  "imes": 1656,
  ".e": 1657,
  "ains": 1658,
  "Ġpost": 1659,
  "-d": 1660,
  "olean": 1661,
  "Ġsl": 1662,
  "PE": 1663,
  "Ġsuch": 1664,
  "select": 1665,
  "ainer": 1666,
  "Ġthink": 1667,
  "Ġdiffer": 1668,
  ".r": 1669,
  "FF": 1670,
  "ool": 1671,
  "plate": 1672,
  "qual": 1673,
  "ĠFor": 1674,
  "Ġmuch": 1675,
  "uc": 1676,
  "(new": 1677,
  "odule": 1678,
  "Ġsom": 1679,
  "Ġhttp": 1680,
  "ĠList": 1681,
  "Ġcount": 1682,
  "Ġinst": 1683,
  "char": 1684,
  "mit": 1685,
  ".id": 1686,
  "aking": 1687,
  "Ġgener": 1688,
  "px": 1689,
  "vice": 1690,
  "_data": 1691,
  "ĠNULL": 1692,
  "idd": 1693,
  "Ġmed": 1694,
  "org": 1695,
  "ider": 1696,
  "ache": 1697,
  "work": 1698,
  "Ġcheck": 1699,
  "ween": 1700,
  "Ġ((": 1701,
  "the": 1702,
  "ants": 1703,
  "><": 1704,
  ".B": 1705,
  "-c": 1706,
  "Ġopen": 1707,
  "Ġest": 1708,
  "ĠĠĠĠĠĠĠĠĊ": 1709,
  "Ġnext": 1710,
  "IM": 1711,
  "OT": 1712,
  "Ġfollow": 1713,
  "content": 1714,
  "ĠĠĠĠĠĠĠĠĠĠĠĠ": 1715,
  "Ġinclud": 1716,
  "HE": 1717,
  "ĠRes": 1718,
  "Ġhref": 1719,
  "Ġcar": 1720,
  "ypes": 1721,
  "image": 1722,
  "Un": 1723,
  "Ġbool": 1724,
  "AD": 1725,
  "Ġgame": 1726,
  ".Form": 1727,
  "rows": 1728,
  "*/": 1729,
  "velop": 1730,
  ".Drawing": 1731,
  "Ġpath": 1732,
  "ision": 1733,
  "Ġeach": 1734,
  "ĠPl": 1735,
  "_type": 1736,
  "Path": 1737,
  "nection": 1738,
  "Ġav": 1739,
  "').": 1740,
  "Ġsupport": 1741,
  "ENT": 1742,
  "rem": 1743,
  "\").": 1744,
  "Ġown": 1745,
  "Ġcor": 1746,
  "count": 1747,
  "miss": 1748,
  "ually": 1749,
  "Ġmem": 1750,
  "std": 1751,
  "ience": 1752,
  "search": 1753,
  "Form": 1754,
  "Ġsex": 1755,
  "ename": 1756,
  "Ġsign": 1757,
  "Ġet": 1758,
  "ĠĠĠĠĠĠĠĠĠĠ": 1759,
  "','": 1760,
  "ĠApp": 1761,
  "Ġthose": 1762,
  "off": 1763,
  "Ġerr": 1764,
  "Ġsystem": 1765,
  "Ġbest": 1766,
  "code": 1767,
  "Ġsame": 1768,
  "Ġdi": 1769,
  "uss": 1770,
  "Ġcreate": 1771,
  "ather": 1772,
  "Array": 1773,
  ".in": 1774,
  "fe": 1775,
  "Service": 1776,
  "UN": 1777,
  "ats": 1778,
  "ĠZ": 1779,
  "alth": 1780,
  "Ġmade": 1781,
  "true": 1782,
  "AB": 1783,
  "Ġmark": 1784,
  "rid": 1785,
  "ified": 1786,
  "yn": 1787,
  "press": 1788,
  "Ġgroup": 1789,
  "Ġfin": 1790,
  "ĠLicense": 1791,
  "Field": 1792,
  "eger": 1793,
  "Ġworld": 1794,
  "iness": 1795,
  "ty": 1796,
  "Ġprocess": 1797,
  "(b": 1798,
  "Ġcre": 1799,
  "arn": 1800,
  "ives": 1801,
  "Ġmain": 1802,
  "ideo": 1803,
  "_g": 1804,
  "AG": 1805,
  "valid": 1806,
  "img": 1807,
  "PI": 1808,
  "Ġcolor": 1809,
  "Ġreport": 1810,
  "Ġtake": 1811,
  "rib": 1812,
  "OM": 1813,
  "Ġday": 1814,
  "Request": 1815,
  "Ġsk": 1816,
  "bers": 1817,
  "ĉs": 1818,
  ".Add": 1819,
  "oot": 1820,
  "Image": 1821,
  "Ġcomple": 1822,
  "ollection": 1823,
  "Ġtop": 1824,
  "Ġfree": 1825,
  "AS": 1826,
  "De": 1827,
  "ĠOn": 1828,
  "IG": 1829,
  "eta": 1830,
  "Date": 1831,
  "Ġaction": 1832,
  "Over": 1833,
  "itor": 1834,
  "ĠĠĠĠĠĠĠĠĠĠĠĠĠĠĠĠĠĠĠĠĠĠĠĠĠĠĠĠĠĠĠĠĠĠĠ": 1835,
  "not": 1836,
  "Ġindex": 1837,
  "her": 1838,
  "icon": 1839,
  "On": 1840,
  "ivity": 1841,
  "mand": 1842,
  ".Windows": 1843,
  "OL": 1844,
  "Ġreal": 1845,
  "Ġmax": 1846,
  "land": 1847,
  "....": 1848,
  "raph": 1849,
  "Ġbuild": 1850,
  "leg": 1851,
  "assword": 1852,
  "ook": 1853,
  "uck": 1854,
  "Ġmessage": 1855,
  "test": 1856,
  "ivers": 1857,
  "Ġinput": 1858,
  "Ġart": 1859,
  "Ġbetween": 1860,
  "Get": 1861,
  "enter": 1862,
  "ground": 1863,
  "ene": 1864,
  ".length": 1865,
  "Node": 1866,
  "(i": 1867,
  "Class": 1868,
  "for": 1869,
  "ten": 1870,
  "oin": 1871,
  "Ġke": 1872,
  "ui": 1873,
  "ĠIN": 1874,
  "Ġtable": 1875,
  "sub": 1876,
  "ĠLe": 1877,
  "Ġhead": 1878,
  "Ġmust": 1879,
  "////////////////": 1880,
  ".util": 1881,
  "Context": 1882,
  "Ġorder": 1883,
  "Ġmov": 1884,
  "over": 1885,
  "Ġcontin": 1886,
  "Ġsay": 1887,
  "static": 1888,
  ".Text": 1889,
  "ĠclassName": 1890,
  "pany": 1891,
  "Ġter": 1892,
  "head": 1893,
  "rg": 1894,
  "Ġproduct": 1895,
  "This": 1896,
  "ĠBut": 1897,
  "loy": 1898,
  "Ġdouble": 1899,
  "sg": 1900,
  "Ġplace": 1901,
  ".x": 1902,
  "message": 1903,
  "Ġinformation": 1904,
  "private": 1905,
  "Ġoper": 1906,
  "ced": 1907,
  "db": 1908,
  "\"></": 1909,
  "Param": 1910,
  "icle": 1911,
  "Ġweek": 1912,
  "Ġprop": 1913,
  "table": 1914,
  "idget": 1915,
  "place": 1916,
  "Prop": 1917,
  "ĠAll": 1918,
  "els": 1919,
  "box": 1920,
  ".R": 1921,
  "ĠTo": 1922,
  "iter": 1923,
  "Sh": 1924,
  "uration": 1925,
  "older": 1926,
  "_list": 1927,
  "come": 1928,
  "Ġsw": 1929,
  "ization": 1930,
  "ĉfor": 1931,
  "bl": 1932,
  "Ġprogram": 1933,
  "(e": 1934,
  "ape": 1935,
  "check": 1936,
  ".Forms": 1937,
  "Ġund": 1938,
  "ategory": 1939,
  "ags": 1940,
  "Ġresponse": 1941,
  "US": 1942,
  "request": 1943,
  "Ġstruct": 1944,
  "escription": 1945,
  "Ġcode": 1946,
  "_H": 1947,
  "uffer": 1948,
  "Ġwithout": 1949,
  "lobal": 1950,
  "Manager": 1951,
  "ilter": 1952,
  "PO": 1953,
  "ĉthis": 1954,
  "option": 1955,
  "Ġsol": 1956,
  "Ġ===": 1957,
  "akes": 1958,
  "Controller": 1959,
  "Message": 1960,
  "Ġref": 1961,
  "ever": 1962,
  "ĠSo": 1963,
  "aining": 1964,
  ".append": 1965,
  "Ġstill": 1966,
  "Ġprovid": 1967,
  "Ġassert": 1968,
  "med": 1969,
  "Ġcap": 1970,
  "usiness": 1971,
  "Ġrep": 1972,
  "tings": 1973,
  "ved": 1974,
  ".N": 1975,
  "api": 1976,
  "OD": 1977,
  "Ġfield": 1978,
  "iven": 1979,
  "oto": 1980,
  "col": 1981,
  "(x": 1982,
  "ght": 1983,
  "Result": 1984,
  "Code": 1985,
  ".is": 1986,
  "link": 1987,
  "Ġcour": 1988,
  "An": 1989,
  "Ġteam": 1990,
  "ĉint": 1991,
  "ift": 1992,
  "Ġsecond": 1993,
  "Ġgoing": 1994,
  "Ġrange": 1995,
  "_E": 1996,
  "ness": 1997,
  "Ġfam": 1998,
  "Ġnil": 1999,
  "ĠCont": 2000,
  "ailable": 2001,
  "utes": 2002,
  "atab": 2003,
  "Ġfact": 2004,
  "Ġvis": 2005,
  "(&": 2006,
  "ĠAN": 2007,
  "Al": 2008,
  "title": 2009,
  "Ġandroid": 2010,
  "CE": 2011,
  "\\\"": 2012,
  "irt": 2013,
  "Ġwrit": 2014,
  "ĉm": 2015,
  "ftware": 2016,
  "ond": 2017,
  "Ġret": 2018,
  "osition": 2019,
  "Ġhome": 2020,
  "Ġleft": 2021,
  "args": 2022,
  "meric": 2023,
  "Ġdirect": 2024,
  "oci": 2025,
  "Pl": 2026,
  "As": 2027,
  "ret": 2028,
  "ado": 2029,
  "Of": 2030,
  "chn": 2031,
  "ĠGet": 2032,
  "ee": 2033,
  "ross": 2034,
  "();": 2035,
  "____": 2036,
  ".ph": 2037,
  "It": 2038,
  "oute": 2039,
  "Ġexper": 2040,
  "chool": 2041,
  "www": 2042,
  "},": 2043,
  "Ġallow": 2044,
  "())": 2045,
  "size": 2046,
  "ism": 2047,
  "ai": 2048,
  "tract": 2049,
  "ane": 2050,
  "context": 2051,
  "Ġbeg": 2052,
  "CH": 2053,
  "Ġpage": 2054,
  "hip": 2055,
  "no": 2056,
  "core": 2057,
  "sp": 2058,
  "Ġdifferent": 2059,
  "iable": 2060,
  "ĠMe": 2061,
  "_IN": 2062,
  "button": 2063,
  "ĠIs": 2064,
  "ervices": 2065,
  "Ġca": 2066,
  "Ġaround": 2067,
  "App": 2068,
  "ration": 2069,
  "Ġrece": 2070,
  "Ġreally": 2071,
  "Ġimage": 2072,
  "Ġtarget": 2073,
  "Ġdep": 2074,
  "opyright": 2075,
  "tra": 2076,
  "ingle": 2077,
  "ital": 2078,
  "Layout": 2079,
  "Ġboth": 2080,
  "Override": 2081,
  "arm": 2082,
  "=>": 2083,
  "aterial": 2084,
  "iled": 2085,
  "Ġput": 2086,
  "Qu": 2087,
  "ung": 2088,
  "map": 2089,
  "ĉĉĉĉĉĉĉĉ": 2090,
  "Ġlevel": 2091,
  "Component": 2092,
  "book": 2093,
  "creen": 2094,
  "_RE": 2095,
  "Ġconfig": 2096,
  "Or": 2097,
  ".data": 2098,
  "Ġdocument": 2099,
  "\",\"": 2100,
  "tribute": 2101,
  "ux": 2102,
  "Log": 2103,
  "ference": 2104,
  "post": 2105,
  "_e": 2106,
  "Ġlocal": 2107,
  "andom": 2108,
  "assert": 2109,
  "Val": 2110,
  "lected": 2111,
  "ina": 2112,
  "atabase": 2113,
  "Add": 2114,
  "Ġcontent": 2115,
  ".print": 2116,
  "signed": 2117,
  "ric": 2118,
  "Ġfa": 2119,
  "-f": 2120,
  "ived": 2121,
  "Ġquest": 2122,
  ".ex": 2123,
  "Ġfloat": 2124,
  "Ġdevelop": 2125,
  "Map": 2126,
  "ading": 2127,
  "Ġposs": 2128,
  "UE": 2129,
  "namespace": 2130,
  "_O": 2131,
  "ĉb": 2132,
  ".Get": 2133,
  ">(": 2134,
  "json": 2135,
  "etails": 2136,
  "Ġtoo": 2137,
  "Ġextends": 2138,
  "ĠNone": 2139,
  "Ġfore": 2140,
  "(String": 2141,
  "format": 2142,
  "Ġgreat": 2143,
  "inter": 2144,
  "cale": 2145,
  "ron": 2146,
  "iving": 2147,
  "Ent": 2148,
  "ency": 2149,
  "xt": 2150,
  "oy": 2151,
  "Ġmonth": 2152,
  "Ġhapp": 2153,
  "Ġsuper": 2154,
  "bar": 2155,
  "default": 2156,
  "_de": 2157,
  "ords": 2158,
  "ln": 2159,
  "ĠInd": 2160,
  "ases": 2161,
  "Ġtitle": 2162,
  "Ġcontext": 2163,
  "oh": 2164,
  "-p": 2165,
  "Em": 2166,
  "Ġmet": 2167,
  "Test": 2168,
  "Ġlife": 2169,
  "_v": 2170,
  "ĠUS": 2171,
  "UI": 2172,
  "ocation": 2173,
  "md": 2174,
  "Ġ]": 2175,
  "sw": 2176,
  "Ġincre": 2177,
  "script": 2178,
  "ential": 2179,
  "ways": 2180,
  ".de": 2181,
  "Ġsrc": 2182,
  "Ġcatch": 2183,
  "ĠAmeric": 2184,
  "ĠĠĠĠĠĠĠĠĠĠĠĠĠĠ": 2185,
  "Ġpay": 2186,
  "plit": 2187,
  "Ġcoun": 2188,
  "obj": 2189,
  ".php": 2190,
  "Ġchange": 2191,
  "ething": 2192,
  "'re": 2193,
  "aster": 2194,
  "los": 2195,
  "lation": 2196,
  "ĠĠĊ": 2197,
  "Le": 2198,
  "({": 2199,
  "ready": 2200,
  "ĠNo": 2201,
  "Ġposition": 2202,
  "Ġold": 2203,
  "Ġbook": 2204,
  "abled": 2205,
  "bug": 2206,
  "Hand": 2207,
  "isplay": 2208,
  "aving": 2209,
  "Ġgover": 2210,
  "Ġversion": 2211,
  "System": 2212,
  "nect": 2213,
  "response": 2214,
  "Style": 2215,
  "Up": 2216,
  "angu": 2217,
  "Ġthree": 2218,
  "init": 2219,
  "ero": 2220,
  "Ġlaw": 2221,
  "endif": 2222,
  "Ġbase": 2223,
  "email": 2224,
  "(l": 2225,
  "_V": 2226,
  "Ġconf": 2227,
  "ATE": 2228,
  "Ġduring": 2229,
  "tes": 2230,
  "Ġconsole": 2231,
  "ĠPr": 2232,
  "Ġspe": 2233,
  "ves": 2234,
  "path": 2235,
  "ialog": 2236,
  "dition": 2237,
  "_to": 2238,
  "ards": 2239,
  "Ġagainst": 2240,
  "etwork": 2241,
  "ĠPh": 2242,
  "_L": 2243,
  "cur": 2244,
  "imit": 2245,
  "With": 2246,
  "Ġpower": 2247,
  "ium": 2248,
  "Ġwom": 2249,
  "left": 2250,
  "ources": 2251,
  "atri": 2252,
  "ĠIm": 2253,
  "ĠMan": 2254,
  "orth": 2255,
  "${": 2256,
  "quals": 2257,
  "ese": 2258,
  "_size": 2259,
  "Ġiss": 2260,
  "otal": 2261,
  "-g": 2262,
  "ique": 2263,
  "rame": 2264,
  "Ġwidth": 2265,
  "erg": 2266,
  ")(": 2267,
  "ittle": 2268,
  "TR": 2269,
  "ĠThey": 2270,
  "ences": 2271,
  "rl": 2272,
  "ons": 2273,
  "Ġlabel": 2274,
  ".y": 2275,
  "-t": 2276,
  "update": 2277,
  "anel": 2278,
  "sc": 2279,
  ".to": 2280,
  "Ġproject": 2281,
  "Ġelement": 2282,
  "Ġsuccess": 2283,
  "ĉĉĊ": 2284,
  ".sh": 2285,
  "ram": 2286,
  "ched": 2287,
  "Ġdate": 2288,
  "Ġtot": 2289,
  "_ST": 2290,
  "All": 2291,
  "ification": 2292,
  "ĉvar": 2293,
  "Ġtri": 2294,
  "chem": 2295,
  "my": 2296,
  "Ġbig": 2297,
  "ĠAd": 2298,
  "ĠAt": 2299,
  "ots": 2300,
  "num": 2301,
  "Act": 2302,
  "Ġmap": 2303,
  "era": 2304,
  "cope": 2305,
  ".$": 2306,
  "Ġpop": 2307,
  "Ġfew": 2308,
  "Ġlen": 2309,
  "uid": 2310,
  "eters": 2311,
  "ules": 2312,
  "source": 2313,
  "https": 2314,
  "Ġdem": 2315,
  "Ġear": 2316,
  "################": 2317,
  "Ġmatch": 2318,
  "ories": 2319,
  "aces": 2320,
  "ĠCl": 2321,
  "Ġnode": 2322,
  "irc": 2323,
  "local": 2324,
  "unity": 2325,
  "Ġanother": 2326,
  "<<": 2327,
  "ogle": 2328,
  "Ġsit": 2329,
  "ework": 2330,
  "TE": 2331,
  ".I": 2332,
  "NS": 2333,
  "ology": 2334,
  "ought": 2335,
  ".Cont": 2336,
  ">>": 2337,
  "Ġcare": 2338,
  "state": 2339,
  "ĉprivate": 2340,
  "Ġeffect": 2341,
  "++)": 2342,
  "_file": 2343,
  "ending": 2344,
  "Line": 2345,
  "For": 2346,
  "ior": 2347,
  "ĠSc": 2348,
  "Ġfun": 2349,
  ".Size": 2350,
  "ĉelse": 2351,
  "])": 2352,
  "start": 2353,
  "vious": 2354,
  "Ġ},": 2355,
  "ours": 2356,
  "Ġleg": 2357,
  "Ġservice": 2358,
  "Ġsince": 2359,
  "iron": 2360,
  "Label": 2361,
  "Ġnon": 2362,
  "Ġlos": 2363,
  "iction": 2364,
  "Ġfull": 2365,
  "acter": 2366,
  "board": 2367,
  "gress": 2368,
  "Ġturn": 2369,
  "ither": 2370,
  ".size": 2371,
  "Ġbody": 2372,
  "resh": 2373,
  "eturn": 2374,
  "(_": 2375,
  "yles": 2376,
  "ormal": 2377,
  "pi": 2378,
  "Ġsomething": 2379,
  "!--": 2380,
  "uint": 2381,
  "Ġprodu": 2382,
  "Ġstand": 2383,
  "Ġproble": 2384,
  "Ġavailable": 2385,
  "mt": 2386,
  "ĠBl": 2387,
  "Ġ...": 2388,
  "Ġblock": 2389,
  "Input": 2390,
  "Ġkeep": 2391,
  "Count": 2392,
  "open": 2393,
  "Ġ['": 2394,
  "Ġthrow": 2395,
  "uilder": 2396,
  "Action": 2397,
  "Ġthings": 2398,
  "True": 2399,
  "Ġurl": 2400,
  "ĠBo": 2401,
  "printf": 2402,
  "Ġred": 2403,
  "js": 2404,
  ".create": 2405,
  "ĠOr": 2406,
  "Status": 2407,
  "Instance": 2408,
  "Ġcontrol": 2409,
  "Ġcome": 2410,
  "Ġcustom": 2411,
  "location": 2412,
  "model": 2413,
  "ĠčĊ": 2414,
  "Ġsource": 2415,
  "Ġeas": 2416,
  ".out": 2417,
  "oney": 2418,
  "Ġawait": 2419,
  "Ġpartic": 2420,
  "AP": 2421,
  "ublish": 2422,
  "odes": 2423,
  "_pro": 2424,
  "ply": 2425,
  "riter": 2426,
  "Ġprov": 2427,
  "Ġmill": 2428,
  "HT": 2429,
  "Ġchang": 2430,
  "Ġask": 2431,
  "ĠĠĠĠĠĠĠĠĠĠĠĠĠĠĠĠĠĠĠĠĠ": 2432,
  "Ġoutput": 2433,
  "Ġemail": 2434,
  ".push": 2435,
  "ination": 2436,
  "atrix": 2437,
  "Table": 2438,
  "uccess": 2439,
  "ĠĠĠĠĠĠĠĠĠĠĠĠĠĠĠĠĠĠĠĠĠĠĠĠĠĠĠĠĠĠĠĠĠĠĠĠĠĠĠ": 2440,
  "Ġdisc": 2441,
  "([": 2442,
  "Ġbusiness": 2443,
  "height": 2444,
  ".html": 2445,
  "ta": 2446,
  "field": 2447,
  "Ġrequired": 2448,
  "_R": 2449,
  "Ġgovern": 2450,
  "lex": 2451,
  ".,": 2452,
  "ĠSet": 2453,
  "urch": 2454,
  "///": 2455,
  "ts": 2456,
  "af": 2457,
  "Ġmight": 2458,
  "istory": 2459,
  "Str": 2460,
  "Ġnever": 2461,
  "Response": 2462,
  "arse": 2463,
  "ada": 2464,
  "ĠHow": 2465,
  "Ġ*)": 2466,
  "Ġ;": 2467,
  "Ġhard": 2468,
  "Ad": 2469,
  "Ġintern": 2470,
  "used": 2471,
  "(data": 2472,
  "mod": 2473,
  "annel": 2474,
  "Ġnp": 2475,
  "ugg": 2476,
  "Ġcalled": 2477,
  "body": 2478,
  "Ġcho": 2479,
  "(r": 2480,
  "_set": 2481,
  "ird": 2482,
  "Ġ>=": 2483,
  "Ġoptions": 2484,
  "ĠGener": 2485,
  "Ġheight": 2486,
  "Point": 2487,
  "You": 2488,
  "ety": 2489,
  "Click": 2490,
  "Ġsmall": 2491,
  "Ġide": 2492,
  "Ġaccess": 2493,
  "anguage": 2494,
  "Ġprotected": 2495,
  "Ġjob": 2496,
  "ĠThere": 2497,
  "Def": 2498,
  "Ġaddress": 2499,
  "Ġuint": 2500,
  "Not": 2501,
  "oo": 2502,
  "aps": 2503,
  "<div": 2504,
  "ained": 2505,
  "atur": 2506,
  "Ġsum": 2507,
  "-w": 2508,
  "ĠDate": 2509,
  "Ġlittle": 2510,
  "Ġfri": 2511,
  "YPE": 2512,
  "Ġport": 2513,
  "eh": 2514,
  "pring": 2515,
  "_path": 2516,
  "Ġstatus": 2517,
  "aim": 2518,
  "bool": 2519,
  "Ġappe": 2520,
  "Ġos": 2521,
  ".name": 2522,
  "ension": 2523,
  "_G": 2524,
  "Ġupdate": 2525,
  "Config": 2526,
  "aff": 2527,
  "ERR": 2528,
  "Ġ<=": 2529,
  "ately": 2530,
  "#if": 2531,
  "uction": 2532,
  "ĠTe": 2533,
  "Ġlink": 2534,
  "ĠUser": 2535,
  ".find": 2536,
  ".org": 2537,
  "me": 2538,
  "Ġgiven": 2539,
  "Out": 2540,
  "#endif": 2541,
  "Ġbetter": 2542,
  "Page": 2543,
  "Ġfeel": 2544,
  "enn": 2545,
  "ML": 2546,
  "Ġalready": 2547,
  "Ġincluding": 2548,
  "oogle": 2549,
  "ru": 2550,
  "ically": 2551,
  "prop": 2552,
  "lean": 2553,
  "outer": 2554,
  "Ġalways": 2555,
  "ording": 2556,
  "If": 2557,
  "orage": 2558,
  "Ġparent": 2559,
  "vis": 2560,
  "ĉĉĉĉĉĉĉ": 2561,
  "Ġgot": 2562,
  "stand": 2563,
  "Ġless": 2564,
  "/s": 2565,
  "ĠAss": 2566,
  "apt": 2567,
  "ired": 2568,
  "ĠAdd": 2569,
  "Ġaccount": 2570,
  "ploy": 2571,
  "Ġder": 2572,
  "resent": 2573,
  "Ġlot": 2574,
  "Ġvalid": 2575,
  "ĉd": 2576,
  "Ġbit": 2577,
  "ponents": 2578,
  "Ġfollowing": 2579,
  "_ex": 2580,
  "SON": 2581,
  "Ġsure": 2582,
  "ocial": 2583,
  "Ġprom": 2584,
  "erties": 2585,
  "header": 2586,
  ".pro": 2587,
  "Ġboolean": 2588,
  "Ġsearch": 2589,
  "ken": 2590,
  "Ġorig": 2591,
  "Ġer": 2592,
  "Ed": 2593,
  "EM": 2594,
  "aut": 2595,
  "ling": 2596,
  "ality": 2597,
  "ById": 2598,
  "bed": 2599,
  "ĉcase": 2600,
  "ether": 2601,
  "posit": 2602,
  "Ġinvest": 2603,
  "ĠOR": 2604,
  "Ġsays": 2605,
  "mission": 2606,
  "AME": 2607,
  "Ġtemp": 2608,
  "oad": 2609,
  "Ġrest": 2610,
  "info": 2611,
  "Ġinterest": 2612,
  "Arg": 2613,
  "Ġperform": 2614,
  "pons": 2615,
  "ĠView": 2616,
  "Ġver": 2617,
  "lib": 2618,
  "(const": 2619,
  "Util": 2620,
  "Listener": 2621,
  "arge": 2622,
  "Ġmult": 2623,
  "Ġdie": 2624,
  "Ġsite": 2625,
  "../../": 2626,
  "EL": 2627,
  "Ġvalues": 2628,
  "pen": 2629,
  "No": 2630,
  "icro": 2631,
  "Ġbeh": 2632,
  "Ġ'./": 2633,
  "acy": 2634,
  "rec": 2635,
  "()->": 2636,
  "ĉĠĠĠ": 2637,
  "\"))": 2638,
  "Content": 2639,
  "_W": 2640,
  "plement": 2641,
  "Ġwon": 2642,
  "Ġvideo": 2643,
  "adi": 2644,
  "point": 2645,
  "%%": 2646,
  "Ġgl": 2647,
  "erved": 2648,
  "viron": 2649,
  "IF": 2650,
  "uted": 2651,
  "'m": 2652,
  "Ġcert": 2653,
  "Ġprof": 2654,
  "Ġcell": 2655,
  "ari": 2656,
  "Ġplayer": 2657,
  "ais": 2658,
  "Ġcost": 2659,
  "Ġhum": 2660,
  "(R": 2661,
  "Ġoffic": 2662,
  "ks": 2663,
  ".text": 2664,
  "atures": 2665,
  "Ġtotal": 2666,
  "ope": 2667,
  "Ġstat": 2668,
  "UM": 2669,
  "Ġload": 2670,
  "ights": 2671,
  "Ġclear": 2672,
  "uro": 2673,
  "Ġtechn": 2674,
  "upport": 2675,
  "IR": 2676,
  "Ġrow": 2677,
  "Ġseem": 2678,
  "Ġq": 2679,
  "Ġshort": 2680,
  "ĠNot": 2681,
  "ipp": 2682,
  "Group": 2683,
  "section": 2684,
  "max": 2685,
  "irl": 2686,
  "Ġoverride": 2687,
  "Ġcompany": 2688,
  "Ġdone": 2689,
  "Ġgre": 2690,
  ".Re": 2691,
  "Ġbelie": 2692,
  "rist": 2693,
  "Ġhealth": 2694,
  "ANT": 2695,
  "ĠBe": 2696,
  ".value": 2697,
  "ĠGr": 2698,
  "ottom": 2699,
  "Ġargs": 2700,
  "PT": 2701,
  "status": 2702,
  "func": 2703,
  "uments": 2704,
  "-h": 2705,
  "Number": 2706,
  "ĠLog": 2707,
  "erver": 2708,
  "ament": 2709,
  "Ġobj": 2710,
  "inc": 2711,
  "Ġchildren": 2712,
  "icy": 2713,
  "IZ": 2714,
  "ands": 2715,
  "ably": 2716,
  "Ġdistrib": 2717,
  "Ġcur": 2718,
  "erial": 2719,
  "Ġdays": 2720,
  "reated": 2721,
  "rect": 2722,
  "-l": 2723,
  "irm": 2724,
  "idden": 2725,
  "omb": 2726,
  "Ġinitial": 2727,
  ".js": 2728,
  "Query": 2729,
  "Ġonline": 2730,
  "imal": 2731,
  ".con": 2732,
  "au": 2733,
  "Url": 2734,
  "control": 2735,
  "irection": 2736,
  "Ġinstance": 2737,
  "ORT": 2738,
  "ĠFr": 2739,
  "where": 2740,
  "Ġjavax": 2741,
  "Ġorgan": 2742,
  "apter": 2743,
  "Ġreason": 2744,
  "options": 2745,
  "ĠMar": 2746,
  "(a": 2747,
  "Ġwithin": 2748,
  "ODE": 2749,
  "_DE": 2750,
  "admin": 2751,
  "ended": 2752,
  "Ġdesign": 2753,
  "ĠData": 2754,
  "une": 2755,
  "ĠFile": 2756,
  "root": 2757,
  "Ġcent": 2758,
  "Ġarr": 2759,
  "_add": 2760,
  "len": 2761,
  "page": 2762,
  ",'": 2763,
  "_str": 2764,
  "Ġbro": 2765,
  "ability": 2766,
  "outh": 2767,
  "/c": 2768,
  "pose": 2769,
  "irtual": 2770,
  "earch": 2771,
  "_url": 2772,
  "argin": 2773,
  "Http": 2774,
  "Ġschool": 2775,
  "ava": 2776,
  "Ġconsider": 2777,
  ".label": 2778,
  "ĠArray": 2779,
  "web": 2780,
  "opt": 2781,
  ".println": 2782,
  "ulation": 2783,
  "Ġfunc": 2784,
  "PL": 2785,
  "Ġ\"\\": 2786,
  "ĠText": 2787,
  "actory": 2788,
  "(function": 2789,
  "null": 2790,
  "Ġeng": 2791,
  "down": 2792,
  "Ġinclude": 2793,
  "ĠEn": 2794,
  "ĠDr": 2795,
  "Ġdb": 2796,
  "!!": 2797,
  "side": 2798,
  "Ġinit": 2799,
  "quired": 2800,
  "ĠShe": 2801,
  "Column": 2802,
  "react": 2803,
  "Ġann": 2804,
  "Ġstop": 2805,
  "Ġlater": 2806,
  "ĠThat": 2807,
  "ention": 2808,
  "df": 2809,
  "UG": 2810,
  "ILE": 2811,
  "Ġclient": 2812,
  "raft": 2813,
  "ffer": 2814,
  "POST": 2815,
  "elper": 2816,
  "Ġlove": 2817,
  "quote": 2818,
  "oud": 2819,
  "Ġjson": 2820,
  "Ġable": 2821,
  "Ġmen": 2822,
  "AX": 2823,
  "ĠCopyright": 2824,
  "avig": 2825,
  "req": 2826,
  "Client": 2827,
  ".Com": 2828,
  "erc": 2829,
  "ilt": 2830,
  "pecial": 2831,
  "_com": 2832,
  "room": 2833,
  ".Name": 2834,
  "Ġgive": 2835,
  "amb": 2836,
  "ike": 2837,
  "Ġcondition": 2838,
  "client": 2839,
  "ators": 2840,
  ":\"": 2841,
  "Ġcopy": 2842,
  "uture": 2843,
  "iversity": 2844,
  "ernal": 2845,
  "{{": 2846,
  "ĠCan": 2847,
  "ounc": 2848,
  "do": 2849,
  "Ġocc": 2850,
  "Ġappro": 2851,
  "thers": 2852,
  "ze": 2853,
  "Ġeither": 2854,
  "ĠFl": 2855,
  "Ġimportant": 2856,
  "Ġlead": 2857,
  "attr": 2858,
  "ART": 2859,
  "Equal": 2860,
  "Ġda": 2861,
  "etch": 2862,
  "entity": 2863,
  "Ġfamily": 2864,
  "adding": 2865,
  "Ġoption": 2866,
  "Ġexist": 2867,
  "ica": 2868,
  "ĠObject": 2869,
  "'ve": 2870,
  "vers": 2871,
  "itional": 2872,
  "output": 2873,
  "ĠTrue": 2874,
  "ĠOF": 2875,
  "_time": 2876,
  "Ġoffer": 2877,
  "HER": 2878,
  "egin": 2879,
  "\"\"": 2880,
  "Ġwater": 2881,
  "Ġche": 2882,
  "ĠMy": 2883,
  "ored": 2884,
  "Ġstep": 2885,
  "ances": 2886,
  "CK": 2887,
  "AY": 2888,
  "struction": 2889,
  "(C": 2890,
  "ouch": 2891,
  "Stream": 2892,
  "active": 2893,
  "ama": 2894,
  "Entity": 2895,
  "product": 2896,
  "Ġgovernment": 2897,
  "ĠID": 2898,
  "ajor": 2899,
  "And": 2900,
  "Ġdisplay": 2901,
  "Ġtimes": 2902,
  "Ġfour": 2903,
  "Ġfar": 2904,
  "Ġpresent": 2905,
  "ĠNS": 2906,
  "uest": 2907,
  "Ġbas": 2908,
  "echo": 2909,
  "child": 2910,
  "ifier": 2911,
  "Handler": 2912,
  "Ġlib": 2913,
  "Property": 2914,
  "translation": 2915,
  "Ġroom": 2916,
  "Ġonce": 2917,
  "Ġ[]": 2918,
  "center": 2919,
  "================================": 2920,
  "Ġresults": 2921,
  "Ġcontinue": 2922,
  "Ġtalk": 2923,
  "_get": 2924,
  "Ġgrow": 2925,
  ".sw": 2926,
  "eb": 2927,
  "ĠPublic": 2928,
  "OP": 2929,
  "ecute": 2930,
  "ols": 2931,
  "Ġ**": 2932,
  "Ġmass": 2933,
  "ured": 2934,
  ".class": 2935,
  "omic": 2936,
  "Ġmean": 2937,
  "ips": 2938,
  "Ġaut": 2939,
  "Ġuntil": 2940,
  "Ġmarket": 2941,
  "Ġarea": 2942,
  "uit": 2943,
  "Ġlength": 2944,
  "ĠWith": 2945,
  "structor": 2946,
  "event": 2947,
  "\"><": 2948,
  "ĠSp": 2949,
  "IV": 2950,
  "Ġmus": 2951,
  "iff": 2952,
  "Ġkind": 2953,
  "author": 2954,
  "ounds": 2955,
  "mb": 2956,
  "_key": 2957,
  "width": 2958,
  "pository": 2959,
  "Ġlight": 2960,
  "uk": 2961,
  "Row": 2962,
  "ohn": 2963,
  "alf": 2964,
  "vironment": 2965,
  "apper": 2966,
  "ollections": 2967,
  "Ġside": 2968,
  "_info": 2969,
  "Ġexample": 2970,
  "imary": 2971,
  "Ġwr": 2972,
  "Ġcamp": 2973,
  "cribe": 2974,
  "\"/": 2975,
  "Ġmiss": 2976,
  "way": 2977,
  "Ġbased": 2978,
  "Ġplan": 2979,
  "Vis": 2980,
  "omain": 2981,
  "unk": 2982,
  "Ġaway": 2983,
  "UP": 2984,
  "<T": 2985,
  "OS": 2986,
  "iod": 2987,
  "ĠMon": 2988,
  "Ġlik": 2989,
  "ively": 2990,
  ".v": 2991,
  "imer": 2992,
  "izer": 2993,
  "Sub": 2994,
  "Ġbutton": 2995,
  "ĠUp": 2996,
  "Ġexperience": 2997,
  "CL": 2998,
  "Ġrender": 2999,
  "_value": 3000,
  "Ġnear": 3001,
  "URL": 3002,
  "alt": 3003,
  "Ġcountry": 3004,
  "ibility": 3005,
  "ead": 3006,
  "Ġauthor": 3007,
  "Ġspecific": 3008,
  "base": 3009,
  "(name": 3010,
  "ones": 3011,
  "ĠDo": 3012,
  "Ġalong": 3013,
  "year": 3014,
  "Ġexpress": 3015,
  ".'": 3016,
  "env": 3017,
  "Ġbegin": 3018,
  "Ġsoftware": 3019,
  "Ġimp": 3020,
  "Ġwin": 3021,
  "Ġthing": 3022,
  "Trans": 3023,
  "ĠTHE": 3024,
  "Ġ<?": 3025,
  "Ġwhy": 3026,
  "Ġdoesn": 3027,
  "ij": 3028,
  "ging": 3029,
  "ĉg": 3030,
  "Ġsingle": 3031,
  "offset": 3032,
  "arning": 3033,
  "ograph": 3034,
  "ley": 3035,
  "_count": 3036,
  "Ġanal": 3037,
  "create": 3038,
  "/m": 3039,
  "ĠReg": 3040,
  "unch": 3041,
  "=$": 3042,
  "isk": 3043,
  "Ġrights": 3044,
  "(M": 3045,
  "aper": 3046,
  ".model": 3047,
  "Ġpo": 3048,
  "empty": 3049,
  "artment": 3050,
  "Ġant": 3051,
  "ĠWhen": 3052,
  "Ġwomen": 3053,
  "ĠEd": 3054,
  "Ġseason": 3055,
  "Ġdest": 3056,
  "(h": 3057,
  "Ġpossible": 3058,
  "Ġsever": 3059,
  "Ġbtn": 3060,
  "Ġdidn": 3061,
  "Ġsent": 3062,
  "Ġenc": 3063,
  "Ġcommand": 3064,
  "_x": 3065,
  "Ġrecent": 3066,
  "olution": 3067,
  "vector": 3068,
  "ĠBy": 3069,
  "ĠMay": 3070,
  "ĠAct": 3071,
  "Ġmoney": 3072,
  "INT": 3073,
  "bsite": 3074,
  "ĉp": 3075,
  "sl": 3076,
  "attern": 3077,
  "ĠClass": 3078,
  "Ġtold": 3079,
  "udio": 3080,
  "current": 3081,
  "Ġequ": 3082,
  "Ġauto": 3083,
  "ĠState": 3084,
  "da": 3085,
  "msg": 3086,
  "Ġworking": 3087,
  "Ġquery": 3088,
  "ĠBr": 3089,
  "Ġwindow": 3090,
  "auth": 3091,
  "only": 3092,
  "ĉt": 3093,
  "Ġleast": 3094,
  "agn": 3095,
  "Ġexpl": 3096,
  "itter": 3097,
  "aring": 3098,
  "Ġcolumn": 3099,
  "ĠGeneral": 3100,
  "\":\"": 3101,
  "eral": 3102,
  "rior": 3103,
  "Ġrecord": 3104,
  "IB": 3105,
  "EX": 3106,
  "Ġdat": 3107,
  "Ġmaking": 3108,
  "ued": 3109,
  "ĠCar": 3110,
  "emp": 3111,
  "\".": 3112,
  "ĠMed": 3113,
  "Ġclose": 3114,
  "Ġpercent": 3115,
  "Ġpast": 3116,
  "(g": 3117,
  ":(": 3118,
  "Ġwrite": 3119,
  "Ġmove": 3120,
  "Ġpat": 3121,
  "Control": 3122,
  ".To": 3123,
  "Ġvi": 3124,
  "inate": 3125,
  "'ll": 3126,
  "aged": 3127,
  "Null": 3128,
  "Ġspecial": 3129,
  "IZE": 3130,
  "Ġcity": 3131,
  "ĠEng": 3132,
  "ixed": 3133,
  "inary": 3134,
  "py": 3135,
  "Ġeff": 3136,
  "ario": 3137,
  "Ġtell": 3138,
  "avor": 3139,
  "Ġselect": 3140,
  "level": 3141,
  "imum": 3142,
  "oper": 3143,
  "Builder": 3144,
  "IP": 3145,
  "esc": 3146,
  "Ġfont": 3147,
  "ĠAm": 3148,
  "ished": 3149,
  "ills": 3150,
  "Inter": 3151,
  "OW": 3152,
  "Ġcourse": 3153,
  "Ġlate": 3154,
  "iddle": 3155,
  "Ġamount": 3156,
  "Ġasync": 3157,
  "ino": 3158,
  "cul": 3159,
  "andle": 3160,
  "_user": 3161,
  "Ġben": 3162,
  "ĠCal": 3163,
  "Ġ$_": 3164,
  "ĠRep": 3165,
  "Ġenough": 3166,
  "Token": 3167,
  ".user": 3168,
  "(j": 3169,
  "Sc": 3170,
  "Width": 3171,
  "now": 3172,
  "atform": 3173,
  "Ġlooking": 3174,
  "Ġhold": 3175,
  "Module": 3176,
  "ITY": 3177,
  "vo": 3178,
  "ison": 3179,
  ".Data": 3180,
  "yc": 3181,
  "Ġpot": 3182,
  "ĠTrump": 3183,
  "idual": 3184,
  "ides": 3185,
  "rt": 3186,
  "Ġproperty": 3187,
  "ĠĠĠĠĠĠĠĠĠĠĠĠĠĠĠĠĠĠĠĠĠĠĠĠĠĠĠĠĠĠĠĠĠĠĠĠĠĠĠĠĠĠĠ": 3188,
  "amework": 3189,
  "go": 3190,
  "Ġlow": 3191,
  "Ġpara": 3192,
  "Ġprice": 3193,
  "ury": 3194,
  "Ġtoday": 3195,
  "roy": 3196,
  "Ġ'/": 3197,
  "Ġpolit": 3198,
  "Ġ''": 3199,
  "ymb": 3200,
  "Ph": 3201,
  "Ġadv": 3202,
  "Ġattack": 3203,
  "ĠSte": 3204,
  "ROM": 3205,
  "ana": 3206,
  "Ġmeans": 3207,
  "Ġstory": 3208,
  "ids": 3209,
  "aken": 3210,
  "Ġmeet": 3211,
  "Ġmom": 3212,
  "Ġ?>": 3213,
  "Ġden": 3214,
  "obile": 3215,
  "change": 3216,
  "ĠĠĠĠĠĠĠĠĠĠĠĠĊ": 3217,
  "ici": 3218,
  "na": 3219,
  "ĠForm": 3220,
  "Ġsort": 3221,
  "Select": 3222,
  "pare": 3223,
  "Ġthought": 3224,
  "_con": 3225,
  "Ġtask": 3226,
  "ocus": 3227,
  "ĠDE": 3228,
  "ĠMin": 3229,
  "Ġopt": 3230,
  "ĉbreak": 3231,
  "umer": 3232,
  "KE": 3233,
  "then": 3234,
  "Ġdet": 3235,
  "ĠTest": 3236,
  "ports": 3237,
  "Ġreview": 3238,
  "('/": 3239,
  "move": 3240,
  "Ġswitch": 3241,
  "ERT": 3242,
  "patch": 3243,
  "annot": 3244,
  "Ġabove": 3245,
  "itive": 3246,
  "Ġquestion": 3247,
  "ĠQu": 3248,
  "gle": 3249,
  "Ġword": 3250,
  "Ġprovide": 3251,
  "ĠReturn": 3252,
  "Ġresearch": 3253,
  "ustr": 3254,
  "Ġpublish": 3255,
  "chema": 3256,
  "}}": 3257,
  "ĠCON": 3258,
  "-in": 3259,
  "allback": 3260,
  "Ġcover": 3261,
  "\\\\": 3262,
  "color": 3263,
  "ĠIS": 3264,
  "Ġwhether": 3265,
  "imate": 3266,
  "isc": 3267,
  "Bar": 3268,
  "Ġdiv": 3269,
  "Be": 3270,
  "ourn": 3271,
  "Ġhaving": 3272,
  "lem": 3273,
  "player": 3274,
  "abs": 3275,
  "amera": 3276,
  "ney": 3277,
  "Ġexc": 3278,
  "gether": 3279,
  "plied": 3280,
  "ao": 3281,
  "[$": 3282,
  "Ġ++": 3283,
  "ipe": 3284,
  "show": 3285,
  "/d": 3286,
  "[:": 3287,
  "agement": 3288,
  "lev": 3289,
  "_ID": 3290,
  "rary": 3291,
  "ades": 3292,
  "_se": 3293,
  "ause": 3294,
  "Ġemploy": 3295,
  "Ġfre": 3296,
  "Ġ'@": 3297,
  "Ġcomplet": 3298,
  "Ġlarge": 3299,
  "ral": 3300,
  "\\x": 3301,
  "Ġfac": 3302,
  "<String": 3303,
  "Ġcreated": 3304,
  "uper": 3305,
  ".state": 3306,
  "Ġhost": 3307,
  "eneric": 3308,
  "/b": 3309,
  "(!": 3310,
  "while": 3311,
  "ias": 3312,
  "BUG": 3313,
  "Ġrole": 3314,
  "Reg": 3315,
  "ĠColor": 3316,
  "Start": 3317,
  "Ġporn": 3318,
  "top": 3319,
  "Ġweb": 3320,
  "Ġdev": 3321,
  "Ġdeal": 3322,
  "Integer": 3323,
  "position": 3324,
  ".on": 3325,
  "Ġ(\"": 3326,
  "Ġproblem": 3327,
  "sv": 3328,
  "Ġpress": 3329,
  "ABLE": 3330,
  "ATION": 3331,
  "ĠSee": 3332,
  "anch": 3333,
  "Ġthough": 3334,
  "leep": 3335,
  "Ġ<!--": 3336,
  "Ġpoints": 3337,
  "ĠĠĠĠĠĠĠĠĠĠĠĠĠĠĠĠĠĠĠĠĠĠĠĠĠ": 3338,
  ".J": 3339,
  "Ġ::": 3340,
  "ptr": 3341,
  "DB": 3342,
  ".png": 3343,
  "node": 3344,
  "soft": 3345,
  "pond": 3346,
  "Ġever": 3347,
  "----------------------------------------------------------------": 3348,
  "Menu": 3349,
  "('#": 3350,
  "Ġservices": 3351,
  "pg": 3352,
  "params": 3353,
  "Ġactually": 3354,
  "Ġ\"/": 3355,
  "Empty": 3356,
  "Method": 3357,
  "Ġident": 3358,
  "unic": 3359,
  "Ġmillion": 3360,
  "Ġaff": 3361,
  "style": 3362,
  "Ġconc": 3363,
  "ios": 3364,
  "ignment": 3365,
  "ULT": 3366,
  "Pr": 3367,
  "Ġunderstand": 3368,
  "uary": 3369,
  "Ġhappen": 3370,
  "Ġserver": 3371,
  "ĠCo": 3372,
  "SC": 3373,
  "Ġles": 3374,
  "Ġfiles": 3375,
  "Grid": 3376,
  "sql": 3377,
  "Ġoften": 3378,
  "Ġinfo": 3379,
  "_tr": 3380,
  "src": 3381,
  "ony": 3382,
  "Ġspace": 3383,
  "umb": 3384,
  "Ġpassword": 3385,
  "Ġstore": 3386,
  "ĠWhat": 3387,
  "ged": 3388,
  "ĠFalse": 3389,
  "Us": 3390,
  "swer": 3391,
  "_index": 3392,
  "Ġformat": 3393,
  "most": 3394,
  "sm": 3395,
  "New": 3396,
  "Ġdetails": 3397,
  "Ġprob": 3398,
  "ĠAND": 3399,
  "ilar": 3400,
  "Ġ${": 3401,
  "rypt": 3402,
  ".Collections": 3403,
  "$this": 3404,
  "ĠFree": 3405,
  "_of": 3406,
  "(false": 3407,
  "dated": 3408,
  "Ġ>>": 3409,
  "Ġface": 3410,
  "CTION": 3411,
  "Ġsave": 3412,
  "Ġtyp": 3413,
  "dev": 3414,
  "(\"#": 3415,
  "AGE": 3416,
  "container": 3417,
  "edit": 3418,
  "QL": 3419,
  "Ġitems": 3420,
  "Ġsocial": 3421,
  "ien": 3422,
  "ĠReact": 3423,
  "Ġmar": 3424,
  "Ġredu": 3425,
  "ĠRE": 3426,
  ".put": 3427,
  "Ġmajor": 3428,
  "Cell": 3429,
  "next": 3430,
  "Ġexpected": 3431,
  "Ġyet": 3432,
  "Ġindiv": 3433,
  "tributes": 3434,
  "atis": 3435,
  "amed": 3436,
  "Ġfood": 3437,
  "Source": 3438,
  "(string": 3439,
  "ites": 3440,
  "dr": 3441,
  "Ġmembers": 3442,
  "Ġcomb": 3443,
  "items": 3444,
  "ĠPer": 3445,
  "TH": 3446,
  "=True": 3447,
  "Ġbar": 3448,
  "_SE": 3449,
  "comm": 3450,
  "(w": 3451,
  "Ġsend": 3452,
  "Ġinc": 3453,
  "unsigned": 3454,
  "FA": 3455,
  "Ġparams": 3456,
  "apping": 3457,
  "ros": 3458,
  "ugin": 3459,
  "fa": 3460,
  "Ġconnection": 3461,
  "Ġbecome": 3462,
  "Mode": 3463,
  "Ġev": 3464,
  "Ġdiff": 3465,
  "ĠUnited": 3466,
  "Height": 3467,
  "fully": 3468,
  "images": 3469,
  "Ġmakes": 3470,
  "Ġglobal": 3471,
  "Ġcontact": 3472,
  "Ġabs": 3473,
  "float": 3474,
  "Ġexcept": 3475,
  "ĠPol": 3476,
  "Child": 3477,
  "typ": 3478,
  "Ġcertain": 3479,
  "OUT": 3480,
  "Ġimpro": 3481,
  "iles": 3482,
  "ĠPart": 3483,
  "values": 3484,
  "oss": 3485,
  "/**": 3486,
  "ilit": 3487,
  "ĠEvent": 3488,
  "curity": 3489,
  "ster": 3490,
  "Ġcharacter": 3491,
  "Ġnews": 3492,
  "Ġ\",": 3493,
  "Ġdevice": 3494,
  "cel": 3495,
  "login": 3496,
  "heet": 3497,
  "Default": 3498,
  "@\"": 3499,
  "ĉĠ": 3500,
  "click": 3501,
  "(value": 3502,
  "ĠAb": 3503,
  "Ġprevious": 3504,
  "ERROR": 3505,
  "ocal": 3506,
  "Ġmaterial": 3507,
  "Ġbelow": 3508,
  "ĠChrist": 3509,
  "Ġmedia": 3510,
  "cover": 3511,
  "ĠUI": 3512,
  "Ġfail": 3513,
  "Ġblack": 3514,
  "Ġcomponent": 3515,
  "ĠAmerican": 3516,
  "Ġadded": 3517,
  "Ġbuy": 3518,
  "stit": 3519,
  "Ġcame": 3520,
  "Ġdelete": 3521,
  "property": 3522,
  "oding": 3523,
  "Ġcard": 3524,
  "rops": 3525,
  "Ġhttps": 3526,
  "Ġroot": 3527,
  "Ġhandle": 3528,
  "CC": 3529,
  "Back": 3530,
  "emplate": 3531,
  "Ġgetting": 3532,
  "_by": 3533,
  "mail": 3534,
  "_sh": 3535,
  ".assert": 3536,
  "ĠDec": 3537,
  "(true": 3538,
  "Ġcomput": 3539,
  "Ġclaim": 3540,
  "'=>": 3541,
  "ĠSub": 3542,
  "Ġair": 3543,
  "ops": 3544,
  "nav": 3545,
  "ements": 3546,
  "(id": 3547,
  "Ġenter": 3548,
  "anged": 3549,
  "End": 3550,
  "Ġlocation": 3551,
  "Ġnight": 3552,
  "Ġdoing": 3553,
  "ĠRed": 3554,
  "lin": 3555,
  "vider": 3556,
  "Ġpick": 3557,
  "Ġwatch": 3558,
  "essages": 3559,
  "Ġhuman": 3560,
  "Ġdam": 3561,
  "pend": 3562,
  "dir": 3563,
  "Ġtax": 3564,
  "Ġgirl": 3565,
  "reet": 3566,
  "Ġbox": 3567,
  "Ġstrong": 3568,
  "(v": 3569,
  "rel": 3570,
  "Ġinterface": 3571,
  "Ġmsg": 3572,
  "fect": 3573,
  "_at": 3574,
  "Ġhouse": 3575,
  "Ġtrack": 3576,
  "je": 3577,
  "ĠJohn": 3578,
  "istr": 3579,
  "(S": 3580,
  "ube": 3581,
  "Ġce": 3582,
  "itted": 3583,
  "VER": 3584,
  "*)": 3585,
  "parent": 3586,
  "Ġapplication": 3587,
  "any": 3588,
  ".swing": 3589,
  "Ġpack": 3590,
  "\\u": 3591,
  "Ġpract": 3592,
  "Ġsection": 3593,
  "ctx": 3594,
  "Ġunsigned": 3595,
  ".Point": 3596,
  "ĠOne": 3597,
  "iple": 3598,
  "aid": 3599,
  "Vector": 3600,
  "byte": 3601,
  "Ġwait": 3602,
  "Ġtogether": 3603,
  "Ġthrows": 3604,
  "FO": 3605,
  "'))": 3606,
  "host": 3607,
  "ising": 3608,
  ".view": 3609,
  "Ġterms": 3610,
  "framework": 3611,
  "-r": 3612,
  "Ġapply": 3613,
  "Ġsession": 3614,
  "Options": 3615,
  "uggest": 3616,
  "Ġothers": 3617,
  "witter": 3618,
  "Ġfund": 3619,
  "Init": 3620,
  "__(": 3621,
  "ensor": 3622,
  "GET": 3623,
  "Ġseveral": 3624,
  "ii": 3625,
  "[j": 3626,
  "IO": 3627,
  "Ġtemplate": 3628,
  "Position": 3629,
  "Ġecon": 3630,
  "achine": 3631,
  "Ġil": 3632,
  ".spring": 3633,
  "main": 3634,
  "elt": 3635,
  "iment": 3636,
  "Rec": 3637,
  "mm": 3638,
  "ĠUniversity": 3639,
  "ursor": 3640,
  "ĠĠĠĠĠĠĠĠĠĠĠĠĠĠĠĠĠĠĠĠ": 3641,
  "GL": 3642,
  "icture": 3643,
  "ithub": 3644,
  "cer": 3645,
  "cast": 3646,
  "From": 3647,
  "ales": 3648,
  "Ġsubject": 3649,
  "password": 3650,
  "ny": 3651,
  "Ġesc": 3652,
  ".write": 3653,
  "What": 3654,
  ".H": 3655,
  "Ġhistory": 3656,
  "ĠFe": 3657,
  "Ġindividual": 3658,
  "unit": 3659,
  "Ġ-->": 3660,
  "Ġdu": 3661,
  "IST": 3662,
  "Ġusers": 3663,
  "fs": 3664,
  "false": 3665,
  "unt": 3666,
  "Title": 3667,
  "Ġmot": 3668,
  "Ġfuture": 3669,
  "ached": 3670,
  "Ġstarted": 3671,
  "Ġmode": 3672,
  "Ġ'<": 3673,
  "_array": 3674,
  "Ġax": 3675,
  "ires": 3676,
  "There": 3677,
  "ught": 3678,
  "tml": 3679,
  "posed": 3680,
  "icult": 3681,
  "Ġtook": 3682,
  "Ġgames": 3683,
  "Ġ}}": 3684,
  "Ġproducts": 3685,
  "Is": 3686,
  "Ġbad": 3687,
  "ĠDes": 3688,
  ".path": 3689,
  "ĠPost": 3690,
  "avel": 3691,
  "(:": 3692,
  "Ġneeds": 3693,
  "Ġknown": 3694,
  "Fl": 3695,
  "Ġexec": 3696,
  "Ġseen": 3697,
  "ume": 3698,
  "Ġborder": 3699,
  "Ġlive": 3700,
  "temp": 3701,
  "Per": 3702,
  "Ġvariable": 3703,
  "iet": 3704,
  "ĠDef": 3705,
  "Ġge": 3706,
  "eme": 3707,
  "_back": 3708,
  "first": 3709,
  "Ġprovided": 3710,
  "////////////////////////////////": 3711,
  "Ġfilename": 3712,
  "Ġhope": 3713,
  "uly": 3714,
  "auto": 3715,
  "find": 3716,
  "_string": 3717,
  "btn": 3718,
  "itude": 3719,
  "Attribute": 3720,
  "Ġyoung": 3721,
  ".txt": 3722,
  "Ġwebsite": 3723,
  "ĠProp": 3724,
  "Ġey": 3725,
  "ional": 3726,
  "ARR": 3727,
  "ictionary": 3728,
  "urther": 3729,
  ".</": 3730,
  "ALL": 3731,
  "Ġstudy": 3732,
  "ili": 3733,
  "Ġnetwork": 3734,
  "yl": 3735,
  "istance": 3736,
  "OK": 3737,
  "NU": 3738,
  "rest": 3739,
  "ĠST": 3740,
  "icrosoft": 3741,
  "Ġlimit": 3742,
  "Ġcut": 3743,
  "Ġcou": 3744,
  "ogn": 3745,
  "Ġsizeof": 3746,
  "ival": 3747,
  "Ġwent": 3748,
  ".z": 3749,
  "Link": 3750,
  "Ġfire": 3751,
  "Ġacross": 3752,
  "Ġcommunity": 3753,
  "region": 3754,
  "NE": 3755,
  "Ref": 3756,
  "Ġofficial": 3757,
  "Ġvisit": 3758,
  "olve": 3759,
  "Ġreceived": 3760,
  "Ġtoken": 3761,
  "Ġmonths": 3762,
  "Ġanim": 3763,
  "Ġparticular": 3764,
  "styles": 3765,
  "ico": 3766,
  "Ġess": 3767,
  ".Control": 3768,
  "ball": 3769,
  "Ġlearn": 3770,
  "inding": 3771,
  "Var": 3772,
  "Ġdecl": 3773,
  "(err": 3774,
  "LECT": 3775,
  "One": 3776,
  "pha": 3777,
  "Ġ~": 3778,
  "fort": 3779,
  "asure": 3780,
  "Ġmind": 3781,
  "ĠEnd": 3782,
  "Check": 3783,
  "Ġquick": 3784,
  "\"),": 3785,
  "AND": 3786,
  "utions": 3787,
  "Base": 3788,
  "________": 3789,
  "Ġcomment": 3790,
  "INE": 3791,
  "But": 3792,
  "ĠEl": 3793,
  "ĠUs": 3794,
  "Ġadmin": 3795,
  "mark": 3796,
  "ĠName": 3797,
  "ĠType": 3798,
  "amic": 3799,
  "pc": 3800,
  "loor": 3801,
  "FT": 3802,
  "Ġopp": 3803,
  "cket": 3804,
  ")->": 3805,
  "tx": 3806,
  "Ġpur": 3807,
  "uel": 3808,
  "ymbol": 3809,
  "uation": 3810,
  "anger": 3811,
  "Ġbackground": 3812,
  "ecess": 3813,
  "efined": 3814,
  "........": 3815,
  "Ġdescription": 3816,
  "Ġrepresent": 3817,
  "pression": 3818,
  "rowser": 3819,
  "Ġseries": 3820,
  "wards": 3821,
  "($_": 3822,
  "aise": 3823,
  "Ġhot": 3824,
  "acity": 3825,
  "ries": 3826,
  "actions": 3827,
  "Create": 3828,
  "adio": 3829,
  "amples": 3830,
  "Ġoriginal": 3831,
  "ensive": 3832,
  "font": 3833,
  "stream": 3834,
  ".springframework": 3835,
  "server": 3836,
  "Ġbill": 3837,
  "ACK": 3838,
  "ilename": 3839,
  "Ġframe": 3840,
  "Edit": 3841,
  "adius": 3842,
  "Ġdraw": 3843,
  "anks": 3844,
  "Ġdeter": 3845,
  "Ġcomes": 3846,
  "_int": 3847,
  "Ġforeach": 3848,
  "angle": 3849,
  "Ġelect": 3850,
  "pected": 3851,
  "Header": 3852,
  "istration": 3853,
  "False": 3854,
  "ĠGame": 3855,
  "Ġfilter": 3856,
  "Activity": 3857,
  "Ġlarg": 3858,
  "inition": 3859,
  "Ġ\"<": 3860,
  "ised": 3861,
  "Ġremove": 3862,
  "ĠTrans": 3863,
  "met": 3864,
  "see": 3865,
  "Format": 3866,
  "Command": 3867,
  "ĠEX": 3868,
  "None": 3869,
  "Ġfront": 3870,
  "ASE": 3871,
  "ĠRec": 3872,
  "oundation": 3873,
  "Ġvo": 3874,
  "=\\\"": 3875,
  "(*": 3876,
  "Change": 3877,
  ".Write": 3878,
  "group": 3879,
  "ients": 3880,
  "uy": 3881,
  "****************************************************************": 3882,
  "Ġdig": 3883,
  "hr": 3884,
  "(-": 3885,
  "Ġgen": 3886,
  "number": 3887,
  "vec": 3888,
  "urope": 3889,
  "entry": 3890,
  "LL": 3891,
  "Ġste": 3892,
  "Valid": 3893,
  "'],": 3894,
  "_param": 3895,
  "Ġselected": 3896,
  "Ġaccording": 3897,
  "ĠDis": 3898,
  "Ġutil": 3899,
  "Buffer": 3900,
  "_error": 3901,
  "Ġassoci": 3902,
  "_SIZE": 3903,
  "Ġwor": 3904,
  "Ġprintf": 3905,
  "rag": 3906,
  "DD": 3907,
  "ĠVal": 3908,
  "Ġactiv": 3909,
  "Eng": 3910,
  "etime": 3911,
  "Ġvirtual": 3912,
  "aign": 3913,
  "aur": 3914,
  "ĠPres": 3915,
  "ĠException": 3916,
  "Ġanything": 3917,
  "ĠOff": 3918,
  "Ġhours": 3919,
  "Ġwar": 3920,
  "Args": 3921,
  "aging": 3922,
  "Ġmodels": 3923,
  "ĠTime": 3924,
  "Ob": 3925,
  "ams": 3926,
  "joy": 3927,
  "Ġearly": 3928,
  ".read": 3929,
  "Ġcenter": 3930,
  "ĠInitial": 3931,
  "Ġlanguage": 3932,
  "length": 3933,
  "xy": 3934,
  "Ġsn": 3935,
  "Ġinf": 3936,
  "Post": 3937,
  "Ġago": 3938,
  "Ġeasy": 3939,
  "_code": 3940,
  "ĠANY": 3941,
  "_ch": 3942,
  "Ġdownload": 3943,
  "(T": 3944,
  "aved": 3945,
  "Ġstudents": 3946,
  "Ġfig": 3947,
  "light": 3948,
  "xx": 3949,
  "Ġbuffer": 3950,
  "ĠDep": 3951,
  "ĠMath": 3952,
  "ITH": 3953,
  "Ġvari": 3954,
  "Ġdue": 3955,
  "Factory": 3956,
  "Ġpor": 3957,
  "Ġep": 3958,
  "otype": 3959,
  "Ġcannot": 3960,
  "Ġwhite": 3961,
  "<int": 3962,
  "tern": 3963,
  "Ġregister": 3964,
  "Ġpred": 3965,
  "clus": 3966,
  "_date": 3967,
  "Ġ/**": 3968,
  "Ġauth": 3969,
  "Ġperiod": 3970,
  "nown": 3971,
  "Ġvot": 3972,
  "Ġscreen": 3973,
  "'d": 3974,
  "Types": 3975,
  "Ġtmp": 3976,
  "ural": 3977,
  "Ġbenef": 3978,
  "_y": 3979,
  "Ġnet": 3980,
  "ĠStates": 3981,
  "']['": 3982,
  "ĠNe": 3983,
  "ĠNOT": 3984,
  "Ġneg": 3985,
  "Ġcommon": 3986,
  "scope": 3987,
  "Ġcred": 3988,
  "ges": 3989,
  "_TYPE": 3990,
  "Ġsuggest": 3991,
  "oom": 3992,
  "Ġaccept": 3993,
  "Ġrandom": 3994,
  "erm": 3995,
  "ĠVector": 3996,
  "with": 3997,
  "TER": 3998,
  "(str": 3999,
  "Ġrespons": 4000,
  "Ġhit": 4001,
  ".Set": 4002,
  "grid": 4003,
  "ria": 4004,
  "Ġclick": 4005,
  "undle": 4006,
  "Case": 4007,
  "insert": 4008,
  "Utils": 4009,
  "Ġ\"\"\"": 4010,
  "Ġimplement": 4011,
  "atal": 4012,
  "tempt": 4013,
  "template": 4014,
  "ocr": 4015,
  "returns": 4016,
  "Ġplayers": 4017,
  "users": 4018,
  "edef": 4019,
  "ĠThese": 4020,
  "Ġamong": 4021,
  "Ġdeb": 4022,
  "ha": 4023,
  ".getElement": 4024,
  "Ġcirc": 4025,
  "Ġanswer": 4026,
  "Ġwalk": 4027,
  "Ġtreat": 4028,
  "ĠGe": 4029,
  "ĠCreate": 4030,
  "Ġage": 4031,
  "Ġreq": 4032,
  "OST": 4033,
  "angular": 4034,
  "Ġfive": 4035,
  "Ġdistributed": 4036,
  "Ġfriend": 4037,
  "TP": 4038,
  "Ġclean": 4039,
  "ows": 4040,
  ".Controls": 4041,
  "dis": 4042,
  "Ġwords": 4043,
  ".io": 4044,
  "zy": 4045,
  "Ġheader": 4046,
  "ĠCheck": 4047,
  "just": 4048,
  "holder": 4049,
  "=\"<?": 4050,
  "ĠGNU": 4051,
  "ĠCol": 4052,
  "imest": 4053,
  "entic": 4054,
  "Ġtre": 4055,
  "last": 4056,
  "la": 4057,
  "ĠYork": 4058,
  "Lo": 4059,
  "Ġdiscuss": 4060,
  "ĠGod": 4061,
  "Ġissue": 4062,
  "rew": 4063,
  "Window": 4064,
  "Ġland": 4065,
  "Ġstream": 4066,
  "ĠPar": 4067,
  "Ġquality": 4068,
  "Par": 4069,
  "_num": 4070,
  "Ġsal": 4071,
  "elves": 4072,
  "ORD": 4073,
  "(user": 4074,
  "Ġworks": 4075,
  "Ġhalf": 4076,
  "enses": 4077,
  "vas": 4078,
  "Ġpolice": 4079,
  "(\"/": 4080,
  "ua": 4081,
  "Ġsimple": 4082,
  "Address": 4083,
  "Ġempty": 4084,
  "esh": 4085,
  "Update": 4086,
  "ĠCreated": 4087,
  "('.": 4088,
  "ĠĠĠĠĠĠĠĠĠĠĠĠĠĠĠĠĠĠ": 4089,
  "Ġagre": 4090,
  "ĠFROM": 4091,
  "Ġcook": 4092,
  "Ġeverything": 4093,
  "ilities": 4094,
  ".status": 4095,
  "Ġrelations": 4096,
  "extern": 4097,
  "Ġnothing": 4098,
  "Ġrunning": 4099,
  "ĉvoid": 4100,
  "RI": 4101,
  "_a": 4102,
  "_CON": 4103,
  "por": 4104,
  ".sub": 4105,
  "require": 4106,
  "ĠCity": 4107,
  "ĠWest": 4108,
  "Ġmor": 4109,
  "store": 4110,
  "Equals": 4111,
  "oder": 4112,
  "Ġna": 4113,
  "Ġ[[": 4114,
  "Ġ('": 4115,
  "ĠDon": 4116,
  "ERS": 4117,
  "/p": 4118,
  ".json": 4119,
  "abor": 4120,
  "Ġsomeone": 4121,
  "_text": 4122,
  ".css": 4123,
  ".Tab": 4124,
  "ĠSome": 4125,
  "ato": 4126,
  "double": 4127,
  "Ġshare": 4128,
  "(void": 4129,
  "_dir": 4130,
  "Ġur": 4131,
  "Stack": 4132,
  "ĠWorld": 4133,
  ".X": 4134,
  "stract": 4135,
  "How": 4136,
  ".Generic": 4137,
  "icles": 4138,
  "Ġentry": 4139,
  "Ġchanges": 4140,
  "Ġpersonal": 4141,
  "(A": 4142,
  "Ġoffset": 4143,
  "_ptr": 4144,
  "Ġpie": 4145,
  "ĠJan": 4146,
  "-group": 4147,
  "module": 4148,
  "Items": 4149,
  "ĠHowever": 4150,
  "verage": 4151,
  ".Font": 4152,
  "Ġevents": 4153,
  ".min": 4154,
  "Ġinvol": 4155,
  "za": 4156,
  "Ġwhole": 4157,
  "Ġneeded": 4158,
  "Ġlikely": 4159,
  "rief": 4160,
  "ORM": 4161,
  "version": 4162,
  "Ġfight": 4163,
  "Ġein": 4164,
  "Frame": 4165,
  "gen": 4166,
  "ĠOut": 4167,
  "avigation": 4168,
  "Length": 4169,
  "illed": 4170,
  "quence": 4171,
  "Ġ!==": 4172,
  "ĠSoftware": 4173,
  "Ġwriting": 4174,
  "Ġrate": 4175,
  "Panel": 4176,
  "inner": 4177,
  "Ġ[\"": 4178,
  "Ġtw": 4179,
  "cd": 4180,
  "_state": 4181,
  "ĠSm": 4182,
  "ĠMark": 4183,
  "prot": 4184,
  "ĠMr": 4185,
  "method": 4186,
  "ustomer": 4187,
  "Icon": 4188,
  "Ġcorrect": 4189,
  "(object": 4190,
  "ĠMore": 4191,
  "Ġfall": 4192,
  "Ġvol": 4193,
  "Ġdevelopment": 4194,
  "ently": 4195,
  "Ġsi": 4196,
  "medi": 4197,
  "ving": 4198,
  "PP": 4199,
  "aker": 4200,
  "Ġindu": 4201,
  "Ġelif": 4202,
  "Ġpret": 4203,
  "Ġbelieve": 4204,
  "ns": 4205,
  "omet": 4206,
  "ĠIntern": 4207,
  "Rect": 4208,
  "So": 4209,
  ".error": 4210,
  "Read": 4211,
  "Ġfeatures": 4212,
  "Ġminutes": 4213,
  "---": 4214,
  "asing": 4215,
  "cret": 4216,
  ".annot": 4217,
  "Ġcollection": 4218,
  "'.": 4219,
  "Ġsimilar": 4220,
  "Ġtaken": 4221,
  "(\"%": 4222,
  "Order": 4223,
  "-md": 4224,
  "ĠTH": 4225,
  "aced": 4226,
  "Ġisn": 4227,
  "/j": 4228,
  "Ġson": 4229,
  "graph": 4230,
  "ĠInteger": 4231,
  "Ġnecess": 4232,
  "reen": 4233,
  "Ġum": 4234,
  "Ġ\\<": 4235,
  "Ġmoment": 4236,
  "Ġbring": 4237,
  "Ġindic": 4238,
  "ysis": 4239,
  "Level": 4240,
  "verse": 4241,
  "urrenc": 4242,
  "_test": 4243,
  "Ġentire": 4244,
  "Down": 4245,
  "(result": 4246,
  "ĠRead": 4247,
  "Mod": 4248,
  "Ġtrying": 4249,
  "Ġmember": 4250,
  "ĠCor": 4251,
  "ODO": 4252,
  "-control": 4253,
  "untime": 4254,
  "ĠSim": 4255,
  "Dialog": 4256,
  "plot": 4257,
  "_on": 4258,
  "Ġphys": 4259,
  "}/": 4260,
  "Ġnamespace": 4261,
  "ĉčĊ": 4262,
  "acc": 4263,
  "Player": 4264,
  "ARE": 4265,
  "Ġfoot": 4266,
  "Ġboard": 4267,
  "part": 4268,
  "Ġsus": 4269,
  "wise": 4270,
  "ĠMc": 4271,
  "Ġpush": 4272,
  "ATA": 4273,
  "Ġplease": 4274,
  "ried": 4275,
  "weet": 4276,
  "bit": 4277,
  "ided": 4278,
  "VE": 4279,
  "ĠSw": 4280,
  "UB": 4281,
  "Ġtypes": 4282,
  "edia": 4283,
  "Ġclos": 4284,
  "acebook": 4285,
  "When": 4286,
  "Ġedit": 4287,
  "igger": 4288,
  "Ġenerg": 4289,
  "Container": 4290,
  "Ġphot": 4291,
  "ĠCount": 4292,
  "ĠEurope": 4293,
  ".Is": 4294,
  "ĠRuss": 4295,
  "peed": 4296,
  "ĠStr": 4297,
  "Ġpy": 4298,
  "Ġcult": 4299,
  "Ġdefined": 4300,
  "ccount": 4301,
  "Ġobt": 4302,
  ".Location": 4303,
  "Ġthread": 4304,
  "ille": 4305,
  "Ġinstead": 4306,
  "strong": 4307,
  "ĠSec": 4308,
  "URE": 4309,
  "Ġidea": 4310,
  ".se": 4311,
  "emy": 4312,
  "selected": 4313,
  "Connection": 4314,
  "acing": 4315,
  "thread": 4316,
  ".next": 4317,
  "Ġcoll": 4318,
  "Ġfilm": 4319,
  "istic": 4320,
  "Ġcompet": 4321,
  "Ġconn": 4322,
  "though": 4323,
  "Ġcompan": 4324,
  "ocket": 4325,
  "Ġteach": 4326,
  "=(": 4327,
  "Ġphone": 4328,
  "Ġactive": 4329,
  "delete": 4330,
  "tries": 4331,
  "Ġmo": 4332,
  "Ġdeath": 4333,
  "ocol": 4334,
  "Widget": 4335,
  "Ġarticle": 4336,
  "rodu": 4337,
  "andid": 4338,
  "ĠCr": 4339,
  "ka": 4340,
  "():": 4341,
  "lood": 4342,
  "ĉĉĉĊ": 4343,
  "Ġalmost": 4344,
  "Ġsell": 4345,
  "ervlet": 4346,
  "rip": 4347,
  "Unit": 4348,
  "Ġapplic": 4349,
  "Ġconnect": 4350,
  "Ġfeature": 4351,
  "Ġvia": 4352,
  "'),": 4353,
  "Ġlim": 4354,
  "ĠĠĠĠĠĠĠĠĠĠĠĠĠĠĠĠĠĠĠĠĠĠĠĠĠĠĠĠĠĠĠĠĠĠĠĠĠĠĠĠĠĠĠĠĠĠĠ": 4355,
  "ĠGu": 4356,
  "Engine": 4357,
  "Ġens": 4358,
  "Ġenvironment": 4359,
  "block": 4360,
  "HERE": 4361,
  "NULL": 4362,
  "gy": 4363,
  "tag": 4364,
  ")).": 4365,
  "exp": 4366,
  "Ġcompl": 4367,
  "Ġinstall": 4368,
  "Ġcomplete": 4369,
  "queue": 4370,
  "atural": 4371,
  "Ġgeneral": 4372,
  "thon": 4373,
  "Ġasked": 4374,
  "ores": 4375,
  "(res": 4376,
  "Ġreserved": 4377,
  "SP": 4378,
  "Ġsignific": 4379,
  "Off": 4380,
  "ĠĠĠĠĠĠĠĠĠĠĠĠĠĠĠĠĠĠĠĠĠĠĠĠĠĠĠĠĠ": 4381,
  "ĠAg": 4382,
  "ĠJust": 4383,
  "ĠError": 4384,
  "Ġinfl": 4385,
  "adata": 4386,
  "Ġicon": 4387,
  "asks": 4388,
  "''": 4389,
  "_LO": 4390,
  "?.": 4391,
  "account": 4392,
  "Ġ(*": 4393,
  "rap": 4394,
  "_var": 4395,
  "ĠFOR": 4396,
  "Ġparty": 4397,
  "ĠYour": 4398,
  "cat": 4399,
  "stry": 4400,
  ".new": 4401,
  "boot": 4402,
  "ĠNov": 4403,
  "Ġvector": 4404,
  "Ġnormal": 4405,
  "Ġfurther": 4406,
  "Repository": 4407,
  "Ġdatabase": 4408,
  "attle": 4409,
  "Ġmusic": 4410,
  "Ġspeed": 4411,
  "Ġdoc": 4412,
  "process": 4413,
  "IGHT": 4414,
  ".parse": 4415,
  "Ġtaking": 4416,
  "Ġviol": 4417,
  "ceed": 4418,
  "ĠAfter": 4419,
  "Ġforward": 4420,
  "Ġcrit": 4421,
  "rot": 4422,
  "Ġfailed": 4423,
  "efore": 4424,
  "Ġconcern": 4425,
  "oe": 4426,
  "ba": 4427,
  "Ġsender": 4428,
  "Ġterm": 4429,
  "has": 4430,
  "=\"#": 4431,
  "Ġpotential": 4432,
  "Num": 4433,
  "Ġpublished": 4434,
  ".close": 4435,
  "ĠImage": 4436,
  "straint": 4437,
  "UD": 4438,
  "ĠOb": 4439,
  "Ġprobably": 4440,
  "lim": 4441,
  "olume": 4442,
  "Ġconsum": 4443,
  "ague": 4444,
  "ensions": 4445,
  "Ġinvestig": 4446,
  "-year": 4447,
  "');": 4448,
  "-sm": 4449,
  "Ġenjoy": 4450,
  "orig": 4451,
  "ering": 4452,
  "cp": 4453,
  "leased": 4454,
  "plements": 4455,
  "Ġreturns": 4456,
  "pat": 4457,
  "BO": 4458,
  "ĠHouse": 4459,
  ".Label": 4460,
  "Ġweight": 4461,
  "ighb": 4462,
  "Ġconditions": 4463,
  "Ġexception": 4464,
  "description": 4465,
  "Ġtrad": 4466,
  "-to": 4467,
  "Ġ{}": 4468,
  "Ġmodule": 4469,
  "END": 4470,
  ".ap": 4471,
  ".props": 4472,
  "Ġconstructor": 4473,
  "aves": 4474,
  "Ġfavor": 4475,
  "ĠNow": 4476,
  ";i": 4477,
  "ĠMain": 4478,
  "_k": 4479,
  "eries": 4480,
  "transform": 4481,
  "imestamp": 4482,
  "Pre": 4483,
  "Ġmer": 4484,
  ".res": 4485,
  "stant": 4486,
  "Location": 4487,
  "_NAME": 4488,
  "Ġloss": 4489,
  "ĠĊĊ": 4490,
  "net": 4491,
  "Ġengine": 4492,
  "Block": 4493,
  "Ġissues": 4494,
  "Ġparse": 4495,
  "ĠBar": 4496,
  "Ġstay": 4497,
  "ĠJSON": 4498,
  "Ġdom": 4499,
  "airs": 4500,
  "wner": 4501,
  "Ġlower": 4502,
  "ĠDem": 4503,
  "ufact": 4504,
  "Ġps": 4505,
  "Ġperfect": 4506,
  "RL": 4507,
  "Ġeduc": 4508,
  "ls": 4509,
  "emory": 4510,
  "ARRANT": 4511,
  "uge": 4512,
  "Ġexact": 4513,
  ".key": 4514,
  "alled": 4515,
  "ech": 4516,
  "ief": 4517,
  "\\/": 4518,
  "oke": 4519,
  "Ġformer": 4520,
  "alloc": 4521,
  "Ġsix": 4522,
  "ida": 4523,
  "Ġmargin": 4524,
  "Ġheart": 4525,
  "ald": 4526,
  "pack": 4527,
  ".getElementById": 4528,
  "ĠWARRANT": 4529,
  "Ġrather": 4530,
  "Ġbuilding": 4531,
  "erman": 4532,
  "lice": 4533,
  "Ġquestions": 4534,
  "izes": 4535,
  "lege": 4536,
  "irectory": 4537,
  "Ġje": 4538,
  "Ġcas": 4539,
  "props": 4540,
  "utf": 4541,
  "Ġsecurity": 4542,
  "Ġhowever": 4543,
  "weight": 4544,
  "Ġinside": 4545,
  "Ġpresident": 4546,
  "Char": 4547,
  "ĠWITH": 4548,
  ".map": 4549,
  "Ġgraph": 4550,
  "Ġtag": 4551,
  "_status": 4552,
  "Ġattempt": 4553,
  "opp": 4554,
  "uses": 4555,
  "ĉconst": 4556,
  "Ġround": 4557,
  ",$": 4558,
  "Ġfriends": 4559,
  "Email": 4560,
  "?>": 4561,
  "Resource": 4562,
  "KEY": 4563,
  "osp": 4564,
  ".query": 4565,
  "ĠNorth": 4566,
  "ables": 4567,
  "istrib": 4568,
  "_class": 4569,
  "ello": 4570,
  "That": 4571,
  "pecially": 4572,
  "ĠPresident": 4573,
  "Ġcampaign": 4574,
  "Ġalt": 4575,
  "area": 4576,
  "Ġchall": 4577,
  "Ġopport": 4578,
  ".Con": 4579,
  "Ġenergy": 4580,
  "like": 4581,
  ".string": 4582,
  "ington": 4583,
  ")*": 4584,
  "yy": 4585,
  "Ġprofession": 4586,
  "irth": 4587,
  "Ġseg": 4588,
  "Ġhor": 4589,
  "iers": 4590,
  "can": 4591,
  "Ġbehind": 4592,
  "Product": 4593,
  "fg": 4594,
  "ĠSk": 4595,
  ".jpg": 4596,
  "?:": 4597,
  "Ġcallback": 4598,
  "ĠHttp": 4599,
  "long": 4600,
  "MS": 4601,
  "ATH": 4602,
  "Ġraise": 4603,
  "Ġwanted": 4604,
  "rown": 4605,
  "utor": 4606,
  "lt": 4607,
  "]=": 4608,
  "eline": 4609,
  "MA": 4610,
  "Ġsepar": 4611,
  "cs": 4612,
  "semb": 4613,
  "Dis": 4614,
  "bserv": 4615,
  "ĠWill": 4616,
  "Ġpolicy": 4617,
  "Ġthird": 4618,
  "phone": 4619,
  "Ġbed": 4620,
  "/g": 4621,
  ".__": 4622,
  "ĠInc": 4623,
  "izing": 4624,
  ".remove": 4625,
  "instance": 4626,
  ".type": 4627,
  "Ġserv": 4628,
  "Each": 4629,
  "Ġhar": 4630,
  "ĠMessage": 4631,
  "(key": 4632,
  "SELECT": 4633,
  "Pos": 4634,
  "Ġrecomm": 4635,
  "Ġtraining": 4636,
  "ĠEnt": 4637,
  "ĠChar": 4638,
  "icht": 4639,
  "(file": 4640,
  "Ġprior": 4641,
  "Game": 4642,
  "Ġexit": 4643,
  "Params": 4644,
  ".core": 4645,
  "PC": 4646,
  "nes": 4647,
  "anced": 4648,
  "(request": 4649,
  "Password": 4650,
  "Ġmag": 4651,
  "Ġrelease": 4652,
  "Ġshall": 4653,
  "udent": 4654,
  "ĠSouth": 4655,
  "ando": 4656,
  ":'": 4657,
  ".TabIndex": 4658,
  "sk": 4659,
  "anner": 4660,
  "isset": 4661,
  "Ġoutside": 4662,
  "ledge": 4663,
  "ĠRob": 4664,
  "Ġimm": 4665,
  "ĠWeb": 4666,
  "Des": 4667,
  "BC": 4668,
  "ancial": 4669,
  "Route": 4670,
  "Dec": 4671,
  "ferences": 4672,
  "Ġpurch": 4673,
  "ĠModel": 4674,
  "ctor": 4675,
  "gn": 4676,
  "_start": 4677,
  "_un": 4678,
  ".*": 4679,
  "ises": 4680,
  "Ġground": 4681,
  "Ġunique": 4682,
  "Ġbeaut": 4683,
  "{\"": 4684,
  "Ġpour": 4685,
  "ĠOct": 4686,
  "Ġtree": 4687,
  "sets": 4688,
  "_res": 4689,
  "')->": 4690,
  "_reg": 4691,
  "(\"\\": 4692,
  "Ġbyte": 4693,
  "Bl": 4694,
  "Ġdating": 4695,
  "Ġmatter": 4696,
  "ĠRem": 4697,
  "Ġ'../": 4698,
  "ĠAug": 4699,
  "ĠLa": 4700,
  "Ġ$(": 4701,
  "ournal": 4702,
  "iam": 4703,
  "Ġshows": 4704,
  "write": 4705,
  "Ġball": 4706,
  "Ġsimply": 4707,
  "Ġfast": 4708,
  "Ġmemory": 4709,
  "ASS": 4710,
  "ĠOf": 4711,
  "oved": 4712,
  "ante": 4713,
  "aul": 4714,
  "istry": 4715,
  "Ġfit": 4716,
  "<string": 4717,
  "Ġpolitical": 4718,
  "ancel": 4719,
  "_.": 4720,
  "card": 4721,
  ".current": 4722,
  "och": 4723,
  "_image": 4724,
  "\\t": 4725,
  "(L": 4726,
  "Ġindustry": 4727,
  "coming": 4728,
  "Ġextra": 4729,
  "Ġreported": 4730,
  ".start": 4731,
  "Ġresources": 4732,
  "Ġimg": 4733,
  "flow": 4734,
  "_EX": 4735,
  "(null": 4736,
  "ĠPre": 4737,
  "Ġwrong": 4738,
  "interface": 4739,
  "Parameter": 4740,
  "ners": 4741,
  "ture": 4742,
  "ersist": 4743,
  "ountry": 4744,
  "Ġseems": 4745,
  "alance": 4746,
  "dest": 4747,
  "ĉString": 4748,
  "Ġmaint": 4749,
  "Ġunit": 4750,
  "acters": 4751,
  "ĠTR": 4752,
  "iful": 4753,
  "exports": 4754,
  "project": 4755,
  "Application": 4756,
  "legate": 4757,
  "Ġtakes": 4758,
  "term": 4759,
  "Ġetc": 4760,
  "uster": 4761,
  "Ġappear": 4762,
  "address": 4763,
  "Ġfem": 4764,
  "hs": 4765,
  "Ġhom": 4766,
  ",-": 4767,
  "Ġdifficult": 4768,
  "Ġcoming": 4769,
  "Open": 4770,
  "Ġsettings": 4771,
  "ĠWar": 4772,
  "ĠThen": 4773,
  "Ġautom": 4774,
  "ĠFoundation": 4775,
  "Ġquite": 4776,
  "Description": 4777,
  "Ġblog": 4778,
  "iqu": 4779,
  "PS": 4780,
  "_field": 4781,
  "Json": 4782,
  "SSION": 4783,
  "ĠSch": 4784,
  "ĠLO": 4785,
  "Ġdescri": 4786,
  "Ġeveryone": 4787,
  "Ġpretty": 4788,
  "Ġlonger": 4789,
  "Ġmenu": 4790,
  "Ġcurrently": 4791,
  "sec": 4792,
  "Ġrelationship": 4793,
  "################################": 4794,
  "ĠMap": 4795,
  "aset": 4796,
  "Ġparameters": 4797,
  "Ġcrush": 4798,
  "ILITY": 4799,
  "igration": 4800,
  "Ġcout": 4801,
  "total": 4802,
  "Ġnames": 4803,
  "ndef": 4804,
  "\");": 4805,
  "riend": 4806,
  "ynamic": 4807,
  "Ġeffort": 4808,
  "Ġactual": 4809,
  "Ġfields": 4810,
  "OUN": 4811,
  "ters": 4812,
  "Ġfix": 4813,
  "_model": 4814,
  "Ġcases": 4815,
  "CA": 4816,
  "My": 4817,
  "Interface": 4818,
  "ĠSE": 4819,
  "]]": 4820,
  "alle": 4821,
  "ĠNational": 4822,
  "ĠArrayList": 4823,
  "inline": 4824,
  ".V": 4825,
  "ara": 4826,
  "refix": 4827,
  "asc": 4828,
  "Reader": 4829,
  "astic": 4830,
  "(()": 4831,
  "Cl": 4832,
  ".annotation": 4833,
  "Ġperformance": 4834,
  "aily": 4835,
  ".toString": 4836,
  ".net": 4837,
  "views": 4838,
  ".end": 4839,
  "ayers": 4840,
  "late": 4841,
  "ĠApr": 4842,
  "ederal": 4843,
  "'])": 4844,
  ".body": 4845,
  "Ġhigher": 4846,
  "_fl": 4847,
  "cr": 4848,
  "alert": 4849,
  "_node": 4850,
  "ĠGoogle": 4851,
  "Ġitself": 4852,
  "Auth": 4853,
  "urrency": 4854,
  "Ġsignificant": 4855,
  "append": 4856,
  "Ġrespect": 4857,
  "strap": 4858,
  "Ġuna": 4859,
  "riteria": 4860,
  "PORT": 4861,
  ".apache": 4862,
  "Output": 4863,
  "Ġprogress": 4864,
  "Ġmid": 4865,
  "ĠMicrosoft": 4866,
  "Ġresource": 4867,
  "ablish": 4868,
  "Ġdim": 4869,
  ".load": 4870,
  ".App": 4871,
  "Ġdirection": 4872,
  "Ġadditional": 4873,
  "ĠĠĠĠĠĠĠĠĠĠĠĠĠĠĠĠĠĠĠĠĠĠĠĠ": 4874,
  "Ġnumbers": 4875,
  "Ġcompanies": 4876,
  ".Th": 4877,
  "Ġsound": 4878,
  "username": 4879,
  "Ġstatement": 4880,
  "Ġalert": 4881,
  "Ġcontract": 4882,
  "home": 4883,
  "_length": 4884,
  ".Component": 4885,
  "ev": 4886,
  ".Ex": 4887,
  "\";": 4888,
  "ĠHigh": 4889,
  "ĠPoint": 4890,
  "oph": 4891,
  "Ġlines": 4892,
  "->_": 4893,
  "ox": 4894,
  "application": 4895,
  "ĊĊĊĊĊĊ": 4896,
  "Ġsoon": 4897,
  "ctions": 4898,
  "inger": 4899,
  "Ġjoin": 4900,
  "ĠPe": 4901,
  "Ġlas": 4902,
  ".E": 4903,
  "css": 4904,
  "/or": 4905,
  "ĠStart": 4906,
  "ĠTO": 4907,
  "Ġsubs": 4908,
  "conn": 4909,
  "components": 4910,
  "DEBUG": 4911,
  "quare": 4912,
  "Function": 4913,
  "endar": 4914,
  ".index": 4915,
  "Ġfill": 4916,
  "Ġchoose": 4917,
  "how": 4918,
  "ĠAmerica": 4919,
  "assets": 4920,
  "------------": 4921,
  "ĠValue": 4922,
  "Ġoffice": 4923,
  "Ġveh": 4924,
  "Ġtransform": 4925,
  "ĠArt": 4926,
  "Ġinde": 4927,
  "Ġfn": 4928,
  "Ġimplements": 4929,
  "ango": 4930,
  "plete": 4931,
  "+\"": 4932,
  "tmp": 4933,
  "amily": 4934,
  "Ġhash": 4935,
  "missions": 4936,
  "EST": 4937,
  "gt": 4938,
  "Provider": 4939,
  "ĠĠĠĠĠĠĠĠĠĠĠĠĠĠĠĠĠĠĠĠĠĠ": 4940,
  "Ġflag": 4941,
  "Ġparticip": 4942,
  "den": 4943,
  "ĠReturns": 4944,
  "Ġnote": 4945,
  "pm": 4946,
  "ideos": 4947,
  "Ġspecified": 4948,
  "ĠEN": 4949,
  "ester": 4950,
  "olid": 4951,
  "Ġupon": 4952,
  "(std": 4953,
  "ĉv": 4954,
  "Ġ'\\": 4955,
  "uz": 4956,
  "Ġvert": 4957,
  "Ġvict": 4958,
  "ĉself": 4959,
  "Ġ\"$": 4960,
  ".k": 4961,
  "Ġgroups": 4962,
  "github": 4963,
  "lang": 4964,
  "Ġmut": 4965,
  "TO": 4966,
  "Ġve": 4967,
  "ĠPlease": 4968,
  "access": 4969,
  "Ġ{\"": 4970,
  "rea": 4971,
  "Ġrisk": 4972,
  "icker": 4973,
  "oggle": 4974,
  "ĉwhile": 4975,
  "ANG": 4976,
  ".send": 4977,
  "Ġwoman": 4978,
  "Ġgets": 4979,
  "Ġign": 4980,
  "ĠId": 4981,
  "_log": 4982,
  "ONE": 4983,
  "Ġevid": 4984,
  "ĠHar": 4985,
  "_sub": 4986,
  "Ġendl": 4987,
  "Ġincluded": 4988,
  "ĠAp": 4989,
  "igr": 4990,
  "Ġsem": 4991,
  "ĠBlack": 4992,
  "doc": 4993,
  "_table": 4994,
  "ĠĠĠĠĠĠĠĠĠĠĠĠĠĠĠĠĠĠĠĠĠĠĠĠĠĠĠĠĠĠĠĠĠĠĠĠĠĠĠĠĠĠĠĠĠĠĠĠĠĠĠĠĠĠĠĠĠĠĠĠĠĠĠĠ": 4995,
  "-up": 4996,
  "Ġcause": 4997,
  "Ġ..": 4998,
  "Ġvan": 4999,
  "_dict": 5000,
  "Ġfocus": 5001,
  "IND": 5002,
  "CESS": 5003,
  ".Log": 5004,
  "Ġmultiple": 5005,
  "ido": 5006,
  "Ġregard": 5007,
  "-M": 5008,
  "andler": 5009,
  "ourse": 5010,
  "Ġdeg": 5011,
  ".U": 5012,
  "Ġaddition": 5013,
  "Ġvarious": 5014,
  "Ġreceive": 5015,
  "ĠHT": 5016,
  "Obj": 5017,
  "DF": 5018,
  "Ġincrease": 5019,
  "ĠOpen": 5020,
  "];": 5021,
  "Ġcommit": 5022,
  "ategories": 5023,
  "atory": 5024,
  "ship": 5025,
  "ĠMich": 5026,
  "Ġhtml": 5027,
  "romise": 5028,
  "Ġleave": 5029,
  "Ġstrateg": 5030,
  "aven": 5031,
  "ĠConsole": 5032,
  "known": 5033,
  "-n": 5034,
  "_LE": 5035,
  ".component": 5036,
  "Ġbre": 5037,
  "Session": 5038,
  "iance": 5039,
  "Ġalign": 5040,
  "typedef": 5041,
  "_result": 5042,
  "ĠWHERE": 5043,
  ".split": 5044,
  "Ġreading": 5045,
  "FAULT": 5046,
  "Ġclo": 5047,
  "Ġnotice": 5048,
  "_pr": 5049,
  "arter": 5050,
  "Ġlock": 5051,
  "Ġstandard": 5052,
  "etic": 5053,
  "ellow": 5054,
  "Ġpadding": 5055,
  "ĠHis": 5056,
  "Ġstates": 5057,
  "_cast": 5058,
  "(P": 5059,
  "aa": 5060,
  "Ġinternal": 5061,
  "ean": 5062,
  "ĠPRO": 5063,
  "ĠKey": 5064,
  "Ġespecially": 5065,
  "ming": 5066,
  "Ġcross": 5067,
  "Ġnational": 5068,
  "_object": 5069,
  "filter": 5070,
  "Ġscript": 5071,
  ".update": 5072,
  "_i": 5073,
  "ĠAssert": 5074,
  "/core": 5075,
  "%%%%": 5076,
  "Ġproblems": 5077,
  "istor": 5078,
  "Ġ.=": 5079,
  "Ġarch": 5080,
  "Ġwritten": 5081,
  "Ġmilit": 5082,
  "MENT": 5083,
  ".ch": 5084,
  "cape": 5085,
  "ĠMus": 5086,
  "_config": 5087,
  "ĠAPI": 5088,
  "foot": 5089,
  "Ġimages": 5090,
  "endl": 5091,
  ".In": 5092,
  "First": 5093,
  "Ġplatform": 5094,
  ".prot": 5095,
  "Option": 5096,
  "ste": 5097,
  "ĠTODO": 5098,
  "Ġforce": 5099,
  ".cont": 5100,
  "ĉecho": 5101,
  "ĠDav": 5102,
  "Ptr": 5103,
  "(B": 5104,
  "RT": 5105,
  "ĠBase": 5106,
  "]['": 5107,
  "Ġannounc": 5108,
  "console": 5109,
  "ĠPy": 5110,
  "ds": 5111,
  ".as": 5112,
  "Ġprevent": 5113,
  "apan": 5114,
  "Ġ{'": 5115,
  "}</": 5116,
  "ĠService": 5117,
  "ĠSen": 5118,
  "ador": 5119,
  "profile": 5120,
  "Top": 5121,
  "Ġiter": 5122,
  "po": 5123,
  "IES": 5124,
  "JSON": 5125,
  "IE": 5126,
  "iant": 5127,
  "_j": 5128,
  "ĠSept": 5129,
  "_map": 5130,
  "bum": 5131,
  "(context": 5132,
  "ĠHome": 5133,
  "ians": 5134,
  "GB": 5135,
  "Ġliving": 5136,
  "Ġpattern": 5137,
  "(input": 5138,
  "icient": 5139,
  "Core": 5140,
  "Ġentity": 5141,
  "Ġinteg": 5142,
  "Changed": 5143,
  "Ġuseful": 5144,
  ".info": 5145,
  "Ġtool": 5146,
  "(item": 5147,
  "Ġok": 5148,
  "Ġfeed": 5149,
  "IX": 5150,
  "ĠNews": 5151,
  "remove": 5152,
  "erry": 5153,
  "ĉĉĉĉĉĉĉĉĉ": 5154,
  "ipment": 5155,
  "ares": 5156,
  "Do": 5157,
  "Current": 5158,
  ".content": 5159,
  ".Group": 5160,
  "ustral": 5161,
  "})": 5162,
  "Ġpopular": 5163,
  "Ġstre": 5164,
  "Ġmethods": 5165,
  "_ERROR": 5166,
  "Left": 5167,
  "cal": 5168,
  "bsp": 5169,
  ".ToString": 5170,
  "Ġdir": 5171,
  "Ġallowed": 5172,
  "Ġimpact": 5173,
  ".config": 5174,
  "Ġelements": 5175,
  "Ġprote": 5176,
  "Ġtrain": 5177,
  ".tr": 5178,
  "rs": 5179,
  "ĠRepublic": 5180,
  "ĠTask": 5181,
  "aries": 5182,
  "(D": 5183,
  "(get": 5184,
  "Ġrelated": 5185,
  "Ġvers": 5186,
  "Ġsil": 5187,
  "Ġcmd": 5188,
  "Ġtechnology": 5189,
  ".width": 5190,
  "Float": 5191,
  "ĠUse": 5192,
  "Body": 5193,
  "should": 5194,
  ".join": 5195,
  "Font": 5196,
  "llum": 5197,
  "ycle": 5198,
  "ĠBrit": 5199,
  "Ġmit": 5200,
  "Ġscale": 5201,
  "Ġ(_": 5202,
  "ernel": 5203,
  "Ġscore": 5204,
  "/v": 5205,
  "Ġstudent": 5206,
  "UC": 5207,
  ".show": 5208,
  "Ġaverage": 5209,
  "Enabled": 5210,
  "(ex": 5211,
  "common": 5212,
  "imation": 5213,
  ":@\"": 5214,
  "chie": 5215,
  "river": 5216,
  "ĠMarch": 5217,
  "category": 5218,
  "fin": 5219,
  "Ġcourt": 5220,
  "Server": 5221,
  "Ġcontainer": 5222,
  "-st": 5223,
  "_for": 5224,
  "Ġparts": 5225,
  "Ġdecision": 5226,
  "obs": 5227,
  "oub": 5228,
  "mitted": 5229,
  "Ġ$('#": 5230,
  "Ġsaw": 5231,
  "Ġapproach": 5232,
  "ICE": 5233,
  "Ġsaying": 5234,
  "Ġanyone": 5235,
  "meta": 5236,
  "SD": 5237,
  "Ġsong": 5238,
  "display": 5239,
  "Oper": 5240,
  "outes": 5241,
  "Ġchannel": 5242,
  "Ġchanged": 5243,
  "Ġfinally": 5244,
  "_number": 5245,
  "Please": 5246,
  "oring": 5247,
  "-re": 5248,
  "Ġkill": 5249,
  "Ġdrug": 5250,
  "window": 5251,
  "Ġconvert": 5252,
  "ombre": 5253,
  "Ġways": 5254,
  "Helper": 5255,
  "ĠFirst": 5256,
  "(__": 5257,
  "urity": 5258,
  "ĠWindows": 5259,
  "ees": 5260,
  "Ġmat": 5261,
  "rapper": 5262,
  "Ġplus": 5263,
  "anges": 5264,
  "\"].": 5265,
  "azon": 5266,
  "/t": 5267,
  "lat": 5268,
  "aste": 5269,
  "Ġprofile": 5270,
  "Ġready": 5271,
  "#ifndef": 5272,
  "rote": 5273,
  "Ġsense": 5274,
  "Gener": 5275,
  "ĠConfig": 5276,
  "omy": 5277,
  "ĠJune": 5278,
  "Ġlatest": 5279,
  "Ġsaf": 5280,
  "Ġregion": 5281,
  "Ġdeep": 5282,
  "witch": 5283,
  "ĠPark": 5284,
  "}`": 5285,
  "ĠFrom": 5286,
  "II": 5287,
  "Ġcv": 5288,
  "Ġreach": 5289,
  "Ġcounter": 5290,
  "ĠWork": 5291,
  "ĠURL": 5292,
  "ĠUpdate": 5293,
  "Ġimmedi": 5294,
  "close": 5295,
  "ados": 5296,
  "ferred": 5297,
  "Ġweeks": 5298,
  "urg": 5299,
  "Ġdamage": 5300,
  "Ġlost": 5301,
  "ani": 5302,
  "_lo": 5303,
  "Ġhimself": 5304,
  "Ġdog": 5305,
  "pir": 5306,
  "tt": 5307,
  "Ġpaper": 5308,
  "Ġthems": 5309,
  "second": 5310,
  "Ġstaff": 5311,
  "ĠInput": 5312,
  "\"+": 5313,
  "ĠFacebook": 5314,
  "Ġalloc": 5315,
  "Ġsched": 5316,
  "ACE": 5317,
  "Ġthemselves": 5318,
  "ĠComponent": 5319,
  "Ġdriver": 5320,
  "ja": 5321,
  "(path": 5322,
  "Ġcategory": 5323,
  "alls": 5324,
  "pu": 5325,
  "lluminate": 5326,
  "ĠAction": 5327,
  ".button": 5328,
  "ĠGL": 5329,
  "istics": 5330,
  "Ġoil": 5331,
  "Ġstock": 5332,
  ">'": 5333,
  "Ġdead": 5334,
  "VAL": 5335,
  "QUE": 5336,
  "************************************************************************": 5337,
  "Ġcharg": 5338,
  "Return": 5339,
  "Ġful": 5340,
  "dom": 5341,
  "Ġrules": 5342,
  "Ġmodify": 5343,
  "Ġeval": 5344,
  "ham": 5345,
  "atement": 5346,
  "\\<": 5347,
  "ula": 5348,
  "=False": 5349,
  "RA": 5350,
  "Ġcontains": 5351,
  "Ġstack": 5352,
  "mar": 5353,
  "Ġundefined": 5354,
  "Ass": 5355,
  "ĠChina": 5356,
  "vey": 5357,
  "Ġplaying": 5358,
  ")/": 5359,
  "actor": 5360,
  "Ġbottom": 5361,
  "lier": 5362,
  "ĠNumber": 5363,
  "Ġcouple": 5364,
  "DC": 5365,
  "ĠSO": 5366,
  "gor": 5367,
  ".setText": 5368,
  "success": 5369,
  "command": 5370,
  "Filter": 5371,
  "ĠOur": 5372,
  "_item": 5373,
  "Ġctx": 5374,
  "Ġroad": 5375,
  "Version": 5376,
  "case": 5377,
  "urt": 5378,
  "avior": 5379,
  "ych": 5380,
  "sembly": 5381,
  "ĠProduct": 5382,
  "Ġheld": 5383,
  "afe": 5384,
  "Ġincludes": 5385,
  "<quote": 5386,
  "Ġavoid": 5387,
  "ĠFin": 5388,
  "ĠMod": 5389,
  "Ġtab": 5390,
  "ano": 5391,
  "ipping": 5392,
  "-e": 5393,
  "Ġinsert": 5394,
  "target": 5395,
  "chan": 5396,
  ".Model": 5397,
  "IME": 5398,
  "Ġmachine": 5399,
  "avy": 5400,
  "ĠNO": 5401,
  "ĠInter": 5402,
  "Ġoperation": 5403,
  "modal": 5404,
  "Tag": 5405,
  "]:": 5406,
  "Ġproduction": 5407,
  "Ġareas": 5408,
  "Ġren": 5409,
  "_from": 5410,
  "nbsp": 5411,
  "Ġoperator": 5412,
  "men": 5413,
  "apped": 5414,
  "_per": 5415,
  "zen": 5416,
  "(\".": 5417,
  ".save": 5418,
  "=\"{{": 5419,
  "Ġtor": 5420,
  "(response": 5421,
  "Ġcandid": 5422,
  "Ġconv": 5423,
  "ailed": 5424,
  "ĠLib": 5425,
  "comp": 5426,
  "ura": 5427,
  "ĠHere": 5428,
  "Ġargument": 5429,
  "hood": 5430,
  "Ġestablish": 5431,
  "ography": 5432,
  "ĠonClick": 5433,
  "ambda": 5434,
  "Ġsch": 5435,
  "Ġmovie": 5436,
  "Ġsec": 5437,
  "Ġactivity": 5438,
  "Ġsql": 5439,
  "_all": 5440,
  "incip": 5441,
  "Ġprovides": 5442,
  "Ġsys": 5443,
  "acket": 5444,
  "Ġwasn": 5445,
  "Ġuses": 5446,
  "ĠFunction": 5447,
  ".google": 5448,
  "ĠResult": 5449,
  "Visible": 5450,
  "agma": 5451,
  "elcome": 5452,
  "ĠSy": 5453,
  "ĠCent": 5454,
  "ALSE": 5455,
  "EXT": 5456,
  "Ġlicense": 5457,
  "ĠLong": 5458,
  "Ġaccom": 5459,
  "Ġability": 5460,
  ".height": 5461,
  "Active": 5462,
  "ological": 5463,
  "oly": 5464,
  ")),": 5465,
  ".Se": 5466,
  "Ġparameter": 5467,
  "prite": 5468,
  "ABILITY": 5469,
  ".service": 5470,
  "ĠGroup": 5471,
  "_query": 5472,
  "ĠItem": 5473,
  "ining": 5474,
  "Ġjud": 5475,
  "ims": 5476,
  "fix": 5477,
  "inder": 5478,
  "agram": 5479,
  "Ġfunctions": 5480,
  "Ġexperi": 5481,
  "ĠEm": 5482,
  "Ġrot": 5483,
  "Ġpen": 5484,
  ".btn": 5485,
  "ĠAS": 5486,
  "#ifdef": 5487,
  "Ġchoice": 5488,
  "ĠPage": 5489,
  "_PRO": 5490,
  "QU": 5491,
  "antity": 5492,
  "words": 5493,
  "Ġreadonly": 5494,
  "Ġflex": 5495,
  "protected": 5496,
  "ĠAny": 5497,
  "Ġcharacters": 5498,
  "enced": 5499,
  "ĠJuly": 5500,
  "iler": 5501,
  "Card": 5502,
  "urance": 5503,
  "Ġrev": 5504,
  ".event": 5505,
  "aly": 5506,
  "Ġwonder": 5507,
  "ĠPort": 5508,
  "Ġlegal": 5509,
  "role": 5510,
  "Ġten": 5511,
  "Ġgoes": 5512,
  "MP": 5513,
  "white": 5514,
  "Ġreference": 5515,
  "Ġmis": 5516,
  "ĠProject": 5517,
  "icks": 5518,
  ">&": 5519,
  "CON": 5520,
  "Ġrepl": 5521,
  "Ġregular": 5522,
  "Storage": 5523,
  "ramework": 5524,
  "Ġgoal": 5525,
  "Ġtouch": 5526,
  ".widget": 5527,
  "Ġbuilt": 5528,
  "des": 5529,
  "Part": 5530,
  "(re": 5531,
  "Ġworth": 5532,
  "hib": 5533,
  "game": 5534,
  "acion": 5535,
  "ĠWhite": 5536,
  "(type": 5537,
  "(`": 5538,
  "Ġnatural": 5539,
  "Ġinj": 5540,
  "Ġcalcul": 5541,
  "ĠApril": 5542,
  ".List": 5543,
  "Ġassociated": 5544,
  "ĉSystem": 5545,
  "~~": 5546,
  "=[": 5547,
  "Ġstorage": 5548,
  "Ġbytes": 5549,
  "Ġtravel": 5550,
  "Ġsou": 5551,
  "Ġpassed": 5552,
  "!=": 5553,
  "ascript": 5554,
  ".open": 5555,
  "Ġgrid": 5556,
  "Ġbus": 5557,
  "Ġrecogn": 5558,
  "Ab": 5559,
  "Ġhon": 5560,
  "ĠCenter": 5561,
  "Ġprec": 5562,
  "build": 5563,
  "HTML": 5564,
  "ĠSan": 5565,
  "Ġcountries": 5566,
  "aled": 5567,
  "token": 5568,
  "kt": 5569,
  "Ġqual": 5570,
  "Last": 5571,
  "adow": 5572,
  "Ġmanufact": 5573,
  "idad": 5574,
  "jango": 5575,
  "Next": 5576,
  "xf": 5577,
  ".a": 5578,
  "Ġporno": 5579,
  "ĠPM": 5580,
  "erve": 5581,
  "iting": 5582,
  "_th": 5583,
  "ci": 5584,
  "=None": 5585,
  "gs": 5586,
  "Ġlogin": 5587,
  "atives": 5588,
  "Ġill": 5589,
  "IA": 5590,
  "children": 5591,
  "DO": 5592,
  "Ġlevels": 5593,
  "Ġ{{": 5594,
  "Ġlooks": 5595,
  "Ġ\"#": 5596,
  "ToString": 5597,
  "Ġnecessary": 5598,
  "ĠĠĠĊ": 5599,
  "cell": 5600,
  "Entry": 5601,
  "Ġ'#": 5602,
  "Ġextrem": 5603,
  "Selector": 5604,
  "Ġplaceholder": 5605,
  "Load": 5606,
  "Ġreleased": 5607,
  "ORE": 5608,
  "Enumer": 5609,
  "ĠTV": 5610,
  "SET": 5611,
  "inq": 5612,
  "Press": 5613,
  "ĠDepartment": 5614,
  "Ġproperties": 5615,
  "Ġrespond": 5616,
  "Search": 5617,
  "ael": 5618,
  "Ġrequ": 5619,
  "ĠBook": 5620,
  "(st": 5621,
  "Ġfinancial": 5622,
  "icket": 5623,
  "_input": 5624,
  "Ġthreat": 5625,
  "(in": 5626,
  "Strip": 5627,
  "Ġevidence": 5628,
  "));": 5629,
  "ĠBro": 5630,
  "Ġou": 5631,
  "buf": 5632,
  "Script": 5633,
  "dat": 5634,
  "Ġrule": 5635,
  "#import": 5636,
  "=\"/": 5637,
  "Serial": 5638,
  "Ġstarting": 5639,
  "[index": 5640,
  "ae": 5641,
  "Ġcontrib": 5642,
  "session": 5643,
  "_new": 5644,
  "utable": 5645,
  "ober": 5646,
  "Ġ\"./": 5647,
  "Ġlogger": 5648,
  "Ġrecently": 5649,
  "Ġreturned": 5650,
  "ččĊ": 5651,
  "itions": 5652,
  "Ġseek": 5653,
  "Ġcommunic": 5654,
  "Ġ\".": 5655,
  "Ġusername": 5656,
  "ECT": 5657,
  "DS": 5658,
  "Ġotherwise": 5659,
  "ĠGerman": 5660,
  ".aw": 5661,
  "Adapter": 5662,
  "ixel": 5663,
  "Ġsystems": 5664,
  "Ġdrop": 5665,
  "Ġstructure": 5666,
  "Ġ$(\"#": 5667,
  "encies": 5668,
  "anning": 5669,
  "ĠLink": 5670,
  "ĠResponse": 5671,
  "Ġstri": 5672,
  "ĠDB": 5673,
  "android": 5674,
  "submit": 5675,
  "otion": 5676,
  "(@": 5677,
  ".test": 5678,
  "ĊĊĊĊĊĊĊĊ": 5679,
  "Ġdirectly": 5680,
  "Ġ\"%": 5681,
  "ris": 5682,
  "elta": 5683,
  "AIL": 5684,
  "mine": 5685,
  "ĠĠĠĠĠĠĠĠĠĠĠĠĠĠĠĠĠĠĠĠĠĠĠĠĠĠ": 5686,
  "(k": 5687,
  "bon": 5688,
  "asic": 5689,
  "pite": 5690,
  "___": 5691,
  "Max": 5692,
  "Ġerrors": 5693,
  "ĠWhile": 5694,
  "Ġarguments": 5695,
  "Ġensure": 5696,
  "Right": 5697,
  "-based": 5698,
  "Web": 5699,
  "Ġ-=": 5700,
  "Ġintrodu": 5701,
  "ĠInst": 5702,
  "ĠWash": 5703,
  "ordin": 5704,
  "join": 5705,
  "Database": 5706,
  "Ġgrad": 5707,
  "Ġusually": 5708,
  "ITE": 5709,
  "Props": 5710,
  "ĠGo": 5711,
  "@Override": 5712,
  "REF": 5713,
  "Ġip": 5714,
  "ĠAustral": 5715,
  "Ġist": 5716,
  "ViewById": 5717,
  "Ġserious": 5718,
  "Ġcustomer": 5719,
  ".prototype": 5720,
  "odo": 5721,
  "cor": 5722,
  "Ġdoor": 5723,
  "ĠWITHOUT": 5724,
  "Ġplant": 5725,
  "Ġbegan": 5726,
  "Ġdistance": 5727,
  "()).": 5728,
  "Ġchance": 5729,
  "Ġord": 5730,
  "came": 5731,
  "pragma": 5732,
  "Ġprotect": 5733,
  "ragment": 5734,
  "ĠNode": 5735,
  "ening": 5736,
  "Ġroute": 5737,
  "ĠSchool": 5738,
  "hi": 5739,
  "Ġneighb": 5740,
  "After": 5741,
  "licit": 5742,
  "Ġcontr": 5743,
  "Ġprimary": 5744,
  "AA": 5745,
  ".WriteLine": 5746,
  "utils": 5747,
  "Ġbi": 5748,
  "Red": 5749,
  ".Linq": 5750,
  ".object": 5751,
  "Ġleaders": 5752,
  "unities": 5753,
  "Ġgun": 5754,
  "onth": 5755,
  "ĠDev": 5756,
  "FILE": 5757,
  "Ġcomments": 5758,
  "_len": 5759,
  "arrow": 5760,
  "amount": 5761,
  "Range": 5762,
  "sert": 5763,
  "GridView": 5764,
  "Ġupdated": 5765,
  "ĠMo": 5766,
  "Ġinform": 5767,
  "ociety": 5768,
  "ala": 5769,
  "Access": 5770,
  "Ġhab": 5771,
  "Ġcreat": 5772,
  "_arg": 5773,
  "ĠJanuary": 5774,
  "ĠDay": 5775,
  "uple": 5776,
  "document": 5777,
  "gorith": 5778,
  "menu": 5779,
  "ĠOver": 5780,
  "bb": 5781,
  ".title": 5782,
  "_out": 5783,
  "Ġled": 5784,
  "uri": 5785,
  "Ġ?></": 5786,
  "gl": 5787,
  "Ġbank": 5788,
  "ayment": 5789,
  "ĉprintf": 5790,
  "MD": 5791,
  "Ġsample": 5792,
  "Ġhands": 5793,
  "ĠVersion": 5794,
  "uario": 5795,
  "Ġoffers": 5796,
  "ityEngine": 5797,
  "Ġshape": 5798,
  "Ġsleep": 5799,
  "_point": 5800,
  "Settings": 5801,
  "Ġachie": 5802,
  "Ġsold": 5803,
  "ota": 5804,
  ".bind": 5805,
  "Am": 5806,
  "Ġsafe": 5807,
  "Store": 5808,
  "Ġshared": 5809,
  "Ġpriv": 5810,
  "_VAL": 5811,
  "Ġsens": 5812,
  "){": 5813,
  "Ġremember": 5814,
  "shared": 5815,
  "element": 5816,
  "Ġshoot": 5817,
  "Vert": 5818,
  "cout": 5819,
  "Ġenv": 5820,
  "_label": 5821,
  "run": 5822,
  "Ġscene": 5823,
  "(array": 5824,
  "device": 5825,
  "_title": 5826,
  "agon": 5827,
  "aby": 5828,
  "Ġbecame": 5829,
  "boolean": 5830,
  "Ġpark": 5831,
  "ĠCode": 5832,
  "upload": 5833,
  "riday": 5834,
  "ĠSeptember": 5835,
  "Fe": 5836,
  "Ġsen": 5837,
  "cing": 5838,
  "FL": 5839,
  "Col": 5840,
  "uts": 5841,
  "_page": 5842,
  "inn": 5843,
  "Ġimplied": 5844,
  "aling": 5845,
  "Ġyourself": 5846,
  ".Count": 5847,
  "conf": 5848,
  "Ġaud": 5849,
  "_init": 5850,
  ".)": 5851,
  "Ġwrote": 5852,
  "NG": 5853,
  ".Error": 5854,
  ".for": 5855,
  "Ġequal": 5856,
  "ĠRequest": 5857,
  "Ġserial": 5858,
  "Ġallows": 5859,
  "XX": 5860,
  "Ġmiddle": 5861,
  "chor": 5862,
  "erval": 5863,
  ".Column": 5864,
  "reading": 5865,
  "Ġescort": 5866,
  "ĠAugust": 5867,
  "Ġquickly": 5868,
  "Ġweap": 5869,
  "ĠCG": 5870,
  "ropri": 5871,
  "ho": 5872,
  "Ġcop": 5873,
  "(struct": 5874,
  "ĠBig": 5875,
  "Ġvs": 5876,
  "Ġfrequ": 5877,
  ".Value": 5878,
  "Ġactions": 5879,
  "Ġproper": 5880,
  "Ġinn": 5881,
  "Ġobjects": 5882,
  "Ġmatrix": 5883,
  "avascript": 5884,
  "Ġones": 5885,
  ".group": 5886,
  "Ġgreen": 5887,
  "Ġpaint": 5888,
  "ools": 5889,
  "ycl": 5890,
  "encode": 5891,
  "olt": 5892,
  "comment": 5893,
  ".api": 5894,
  "Dir": 5895,
  "Ġune": 5896,
  "izont": 5897,
  ".position": 5898,
  "Ġdesigned": 5899,
  "_val": 5900,
  "avi": 5901,
  "iring": 5902,
  "tab": 5903,
  "Ġlayer": 5904,
  "Ġviews": 5905,
  "Ġreve": 5906,
  "rael": 5907,
  "ĠON": 5908,
  "rics": 5909,
  "np": 5910,
  "Ġcore": 5911,
  "Main": 5912,
  "Ġexpert": 5913,
  "ĉĉčĊ": 5914,
  "_en": 5915,
  "Ġ/>": 5916,
  "utter": 5917,
  "IAL": 5918,
  "ails": 5919,
  "ĠKing": 5920,
  "ĠMet": 5921,
  "_end": 5922,
  "addr": 5923,
  "ora": 5924,
  "Ġir": 5925,
  "Min": 5926,
  "Ġsurpr": 5927,
  "Ġrepe": 5928,
  "Ġdirectory": 5929,
  "PUT": 5930,
  "-S": 5931,
  "Ġelection": 5932,
  "haps": 5933,
  ".pre": 5934,
  "cm": 5935,
  "Values": 5936,
  "column": 5937,
  "ivil": 5938,
  "Login": 5939,
  "inue": 5940,
  "Ġbeautiful": 5941,
  "Ġsecret": 5942,
  "(event": 5943,
  "Ġchat": 5944,
  "ums": 5945,
  "Ġorigin": 5946,
  "Ġeffects": 5947,
  "Ġmanagement": 5948,
  "illa": 5949,
  "tk": 5950,
  "Ġsetting": 5951,
  "ĠCour": 5952,
  "Ġmassage": 5953,
  "ĉend": 5954,
  "Ġhappy": 5955,
  "Ġfinish": 5956,
  "Ġcamera": 5957,
  "ĠVer": 5958,
  "ĠDemocr": 5959,
  "ĠHer": 5960,
  "(Q": 5961,
  "cons": 5962,
  "ita": 5963,
  "Ġ'.": 5964,
  "{}": 5965,
  "ĉC": 5966,
  "Ġstuff": 5967,
  "ĠAR": 5968,
  "Task": 5969,
  "hidden": 5970,
  "eros": 5971,
  "IGN": 5972,
  "atio": 5973,
  "ĠHealth": 5974,
  "olute": 5975,
  "Enter": 5976,
  "'>": 5977,
  "ĠTwitter": 5978,
  "ĠCounty": 5979,
  "scribe": 5980,
  "Ġhy": 5981,
  "fit": 5982,
  "Ġmilitary": 5983,
  "Ġsale": 5984,
  "required": 5985,
  "non": 5986,
  "bootstrap": 5987,
  "hold": 5988,
  "rim": 5989,
  "-old": 5990,
  "ĠDown": 5991,
  "Ġmention": 5992,
  "contact": 5993,
  "_group": 5994,
  "oday": 5995,
  "Ġtown": 5996,
  "Ġsolution": 5997,
  "uate": 5998,
  "elling": 5999,
  "]->": 6000,
  "otes": 6001,
  "ental": 6002,
  "omen": 6003,
  "ospital": 6004,
  "ĠSup": 6005,
  "_EN": 6006,
  "Ġslow": 6007,
  "SESSION": 6008,
  "Ġblue": 6009,
  "ago": 6010,
  "Ġlives": 6011,
  "Ġ^": 6012,
  ".un": 6013,
  "inst": 6014,
  "enge": 6015,
  "Ġcustomers": 6016,
  "Ġcast": 6017,
  "udget": 6018,
  "icens": 6019,
  "Ġdetermin": 6020,
  "Selected": 6021,
  "_pl": 6022,
  "ueue": 6023,
  "Ġdark": 6024,
  "si": 6025,
  "thern": 6026,
  "ĠJapan": 6027,
  "/w": 6028,
  "PU": 6029,
  "ĠEast": 6030,
  "ovie": 6031,
  "Ġpackage": 6032,
  "Ġnor": 6033,
  "Ġapi": 6034,
  "bot": 6035,
  "_post": 6036,
  "ulate": 6037,
  "Ġclub": 6038,
  "Ġloop": 6039,
  "PIO": 6040,
  "ione": 6041,
  "shot": 6042,
  "Initial": 6043,
  "Ġplayed": 6044,
  "register": 6045,
  "rought": 6046,
  "_max": 6047,
  "acement": 6048,
  "match": 6049,
  "raphics": 6050,
  "AST": 6051,
  "Ġexisting": 6052,
  "Ġcomplex": 6053,
  "DA": 6054,
  ".Ch": 6055,
  ".common": 6056,
  "mo": 6057,
  "Ġ'../../": 6058,
  "ito": 6059,
  "Ġanalysis": 6060,
  "Ġdeliver": 6061,
  "ĠĠĠĠĠĠĠĠĠĠĠĠĠĠĠĠĊ": 6062,
  "idx": 6063,
  "ongo": 6064,
  "ĠEnglish": 6065,
  "<!--": 6066,
  "Ġcomputer": 6067,
  "ENSE": 6068,
  "Ġpas": 6069,
  "Ġrais": 6070,
  "Hash": 6071,
  "Ġmobile": 6072,
  "Ġowner": 6073,
  "FIG": 6074,
  "ĠĠĠĠĠĠĠĠĠĠĠĠĠĠĠĠĠĠĠĠĠĠĠĠĠĠĠĠĠĠĠĠĠĠĠĠĠĠĠĠĠĠĠĠĠĠĠĠĠĠĠ": 6075,
  "thes": 6076,
  "Ġattr": 6077,
  "wd": 6078,
  ".time": 6079,
  "awn": 6080,
  "Ġtreatment": 6081,
  "ĠAc": 6082,
  ".View": 6083,
  "impl": 6084,
  "more": 6085,
  "pass": 6086,
  "Ġha": 6087,
  ".from": 6088,
  "Ġleading": 6089,
  "FFFF": 6090,
  "(error": 6091,
  ".ui": 6092,
  "atar": 6093,
  "aders": 6094,
  "dates": 6095,
  "Ġzu": 6096,
  "Ġflow": 6097,
  "Target": 6098,
  "Ġinvolved": 6099,
  "Ġio": 6100,
  "parse": 6101,
  "$_": 6102,
  "hest": 6103,
  ".int": 6104,
  "-item": 6105,
  "asy": 6106,
  "Sp": 6107,
  "Ġshift": 6108,
  "NT": 6109,
  "Ġtf": 6110,
  "_TR": 6111,
  ".web": 6112,
  "CS": 6113,
  "Ġ})": 6114,
  "Ġeyes": 6115,
  "_z": 6116,
  "iforn": 6117,
  "Ġ{@": 6118,
  "Ġnice": 6119,
  ".list": 6120,
  "ĠĠĠĠčĊ": 6121,
  "Ġfloor": 6122,
  "Ġredirect": 6123,
  "ĠUK": 6124,
  "(['": 6125,
  "Ġwish": 6126,
  "Ġcapt": 6127,
  "legal": 6128,
  "ĠIO": 6129,
  "Ġstage": 6130,
  ".String": 6131,
  "ĠAfr": 6132,
  "igen": 6133,
  "ĠSH": 6134,
  "Delete": 6135,
  "ells": 6136,
  "Ġsolid": 6137,
  "Ġmeeting": 6138,
  "Ġworked": 6139,
  "Ġeditor": 6140,
  "iny": 6141,
  "_read": 6142,
  ".Id": 6143,
  "eff": 6144,
  "Offset": 6145,
  "cha": 6146,
  "USER": 6147,
  "ĉĉĠĠĠ": 6148,
  "ipped": 6149,
  "Ġdict": 6150,
  "ĠRun": 6151,
  ".hpp": 6152,
  "Ġang": 6153,
  "xml": 6154,
  "imple": 6155,
  "Ġmedical": 6156,
  "_token": 6157,
  "connect": 6158,
  "Ġhour": 6159,
  "Ġcontroller": 6160,
  "_message": 6161,
  "UID": 6162,
  "Gr": 6163,
  "anded": 6164,
  "_CH": 6165,
  "Ġbooks": 6166,
  "Ġspeak": 6167,
  "aming": 6168,
  "Ġmount": 6169,
  "Record": 6170,
  "ĉstruct": 6171,
  ".Web": 6172,
  "ondon": 6173,
  "Ġfelt": 6174,
  ".Auto": 6175,
  "idge": 6176,
  "_pos": 6177,
  "PR": 6178,
  "Ġmodern": 6179,
  "Collection": 6180,
  "_msg": 6181,
  "CD": 6182,
  "ĠLo": 6183,
  "Ġseconds": 6184,
  "ibly": 6185,
  ".equals": 6186,
  "Ġinternational": 6187,
  "#pragma": 6188,
  "ooth": 6189,
  "Writer": 6190,
  "iate": 6191,
  "Ġcele": 6192,
  "ĠBit": 6193,
  "ivo": 6194,
  "ivery": 6195,
  "rd": 6196,
  "HECK": 6197,
  "Ġcache": 6198,
  ".count": 6199,
  "Ġroll": 6200,
  ".Read": 6201,
  "RED": 6202,
  "Ġsetup": 6203,
  "izontal": 6204,
  "models": 6205,
  "argv": 6206,
  "Ġconsidered": 6207,
  "=\"../": 6208,
  "settings": 6209,
  "ĠRel": 6210,
  "Ġgrowth": 6211,
  "Ġmix": 6212,
  "ĠWashington": 6213,
  "Ġplt": 6214,
  "ĠIM": 6215,
  "Ġturned": 6216,
  "ĠDateTime": 6217,
  "ĠWed": 6218,
  "(url": 6219,
  "Ġ\"-": 6220,
  "Ġletter": 6221,
  "Async": 6222,
  "ĠĠĠĠĠĠĠĠĠĠĠĠĠĠĠĠĠĠĠĠĠĠĠĠĠĠĠĠ": 6223,
  "ĠOctober": 6224,
  "_line": 6225,
  "Ġattention": 6226,
  "Ġcollect": 6227,
  "ĠHash": 6228,
  "Ġimag": 6229,
  "Tree": 6230,
  "Ġsituation": 6231,
  "ette": 6232,
  "_no": 6233,
  "IVE": 6234,
  "Ġvon": 6235,
  ".target": 6236,
  "Ġknowledge": 6237,
  "Ġdrive": 6238,
  ".post": 6239,
  "Ġblood": 6240,
  "Ġcit": 6241,
  "primary": 6242,
  "Ġconfiguration": 6243,
  "tee": 6244,
  "Ġphoto": 6245,
  "isode": 6246,
  "Trace": 6247,
  "Ġgave": 6248,
  "Ġshot": 6249,
  "ĠAir": 6250,
  "Ġmother": 6251,
  "price": 6252,
  "Ġmorning": 6253,
  "-x": 6254,
  "Ġtrade": 6255,
  "Ġdesc": 6256,
  "Ġparents": 6257,
  "Api": 6258,
  "ted": 6259,
  "wer": 6260,
  "Ġsy": 6261,
  "ĠKe": 6262,
  "Parser": 6263,
  "ancy": 6264,
  "Ġpiece": 6265,
  "ifornia": 6266,
  "toString": 6267,
  "ran": 6268,
  "iding": 6269,
  "PTION": 6270,
  "comes": 6271,
  "/lic": 6272,
  ".client": 6273,
  "El": 6274,
  "Long": 6275,
  "Ġprofessional": 6276,
  "rupt": 6277,
  "va": 6278,
  "Ġcompletely": 6279,
  "Ġpractice": 6280,
  "Ġselection": 6281,
  "Rem": 6282,
  "ini": 6283,
  "Ġcam": 6284,
  "REE": 6285,
  "Ġsites": 6286,
  "pa": 6287,
  "ATUS": 6288,
  "arrant": 6289,
  "*(": 6290,
  "_KEY": 6291,
  "ĠButton": 6292,
  "ĠFriday": 6293,
  "sequ": 6294,
  "Ġreader": 6295,
  "Ġmessages": 6296,
  "Ġbuf": 6297,
  "Ke": 6298,
  "Ġnov": 6299,
  "HP": 6300,
  "Msg": 6301,
  "align": 6302,
  "arily": 6303,
  "Ġ',": 6304,
  "_with": 6305,
  "Ġdas": 6306,
  "Ġheard": 6307,
  "atomic": 6308,
  "rial": 6309,
  ")[": 6310,
  "Ġdise": 6311,
  "@end": 6312,
  "Ġgold": 6313,
  "Ġfair": 6314,
  "Ġsales": 6315,
  ".Button": 6316,
  "strict": 6317,
  "save": 6318,
  "Ġmeasure": 6319,
  "Ġ\"+": 6320,
  "ecause": 6321,
  "ViewController": 6322,
  "ĠTable": 6323,
  ".param": 6324,
  "Ġdecided": 6325,
  "(((": 6326,
  "INFO": 6327,
  "Ġopportunity": 6328,
  "Te": 6329,
  "ICENSE": 6330,
  "ccording": 6331,
  "ki": 6332,
  "ĠUN": 6333,
  "Ġcontain": 6334,
  "Ġmanager": 6335,
  "Ġpain": 6336,
  "ĠFire": 6337,
  "rome": 6338,
  "Ġplans": 6339,
  "Found": 6340,
  "lay": 6341,
  "ĠDecember": 6342,
  "Ġinflu": 6343,
  "rench": 6344,
  "ĠĠĠĠĠĠĠĠĠĠĠĠĠĠĠĠĠĠĠĠĠĠĠĠĠĠĠĠĠĠĠĠĠ": 6345,
  "azing": 6346,
  "brief": 6347,
  "call": 6348,
  "wood": 6349,
  "Ġloaded": 6350,
  "Ġgrand": 6351,
  "/f": 6352,
  "imp": 6353,
  "_U": 6354,
  "STR": 6355,
  "Ġcredit": 6356,
  ".Color": 6357,
  "orge": 6358,
  "QUEST": 6359,
  "Ġdifference": 6360,
  "ĠPC": 6361,
  "wargs": 6362,
  "Ġpub": 6363,
  "unday": 6364,
  "Ġfra": 6365,
  ".max": 6366,
  "Ġtried": 6367,
  "annels": 6368,
  "send": 6369,
  "Ġreports": 6370,
  "Ġadult": 6371,
  "Ġconsist": 6372,
  "ĠStreet": 6373,
  "ĠProgram": 6374,
  "SQL": 6375,
  "Matrix": 6376,
  "ouncil": 6377,
  "-A": 6378,
  "ĉw": 6379,
  "Ġwhose": 6380,
  "Ġrelig": 6381,
  "ĠSex": 6382,
  "Ġgives": 6383,
  "none": 6384,
  ".message": 6385,
  "(G": 6386,
  ".awt": 6387,
  "-right": 6388,
  "ĠNovember": 6389,
  "ellig": 6390,
  "utive": 6391,
  "overn": 6392,
  "Ġeasily": 6393,
  "Ġideas": 6394,
  "/css": 6395,
  "lying": 6396,
  "elle": 6397,
  "Can": 6398,
  "_color": 6399,
  "Ġpair": 6400,
  "ngth": 6401,
  "Ġsplit": 6402,
  "drop": 6403,
  "arty": 6404,
  "ona": 6405,
  "Ġcapital": 6406,
  "Ġhear": 6407,
  "Ġexists": 6408,
  "ĉlog": 6409,
  "emo": 6410,
  "Run": 6411,
  "oi": 6412,
  "Ġparser": 6413,
  "ĠMethod": 6414,
  "Ġeducation": 6415,
  "[k": 6416,
  "Ġlibrary": 6417,
  "_UN": 6418,
  "ĉstd": 6419,
  "oded": 6420,
  "Ġcalls": 6421,
  "here": 6422,
  "Rel": 6423,
  "Ġbrand": 6424,
  "background": 6425,
  "ga": 6426,
  "_address": 6427,
  "_params": 6428,
  "Category": 6429,
  "ĠIndia": 6430,
  "_event": 6431,
  "Ġing": 6432,
  "Render": 6433,
  ".cl": 6434,
  "umpy": 6435,
  "Ġpet": 6436,
  "FC": 6437,
  "ĠAnt": 6438,
  "Ext": 6439,
  "Ġcharge": 6440,
  "ened": 6441,
  "grad": 6442,
  "EO": 6443,
  "Ġdepend": 6444,
  "frame": 6445,
  "Ġdf": 6446,
  "Ġhuge": 6447,
  "ĠPART": 6448,
  "eds": 6449,
  ";;": 6450,
  "ĠAM": 6451,
  "Ġbasic": 6452,
  "ĠLet": 6453,
  "lich": 6454,
  "Ġarm": 6455,
  "Ġstar": 6456,
  "Ġfederal": 6457,
  "Work": 6458,
  "Ġcarry": 6459,
  "ĠIsrael": 6460,
  "(obj": 6461,
  "={{": 6462,
  "Ġsaved": 6463,
  "Ġsyn": 6464,
  "Ġconstant": 6465,
  "VENT": 6466,
  "Ġpositive": 6467,
  "Ġconduct": 6468,
  "Ġskin": 6469,
  "Ġearlier": 6470,
  "Ġlayout": 6471,
  "ĠIP": 6472,
  "OUR": 6473,
  "Ġtim": 6474,
  "stylesheet": 6475,
  "_cl": 6476,
  "ĠCard": 6477,
  "Ġtemper": 6478,
  "ĠDavid": 6479,
  "ĉtry": 6480,
  ".dart": 6481,
  "Ġwants": 6482,
  "Ġpicture": 6483,
  "Ġvideos": 6484,
  "ĠComm": 6485,
  "isions": 6486,
  "_MAX": 6487,
  "Mapping": 6488,
  "-content": 6489,
  "ĠEar": 6490,
  "-de": 6491,
  "Ġprem": 6492,
  "bruary": 6493,
  "Ġcomponents": 6494,
  "Ġthroughout": 6495,
  "Ġpull": 6496,
  "Ġpages": 6497,
  "ente": 6498,
  "respond": 6499,
  "Ġgas": 6500,
  "criptor": 6501,
  "Ġedge": 6502,
  "Ġbound": 6503,
  "ACT": 6504,
  "******": 6505,
  "Ġcreating": 6506,
  "ĠCH": 6507,
  "Ġnullptr": 6508,
  "Br": 6509,
  "+'": 6510,
  ".co": 6511,
  ">::": 6512,
  "Ġlearning": 6513,
  ".Length": 6514,
  "_SH": 6515,
  "Ġpatients": 6516,
  "AIN": 6517,
  "Ġkids": 6518,
  "Ġcomfort": 6519,
  "Ġshown": 6520,
  "ugins": 6521,
  "ĠBack": 6522,
  "ella": 6523,
  "_CL": 6524,
  "Ġlat": 6525,
  "Ġdispatch": 6526,
  "Ġclasses": 6527,
  ".at": 6528,
  ".begin": 6529,
  "Ġsuccessful": 6530,
  "ban": 6531,
  "Ġobtain": 6532,
  "ĠSl": 6533,
  "Ġlack": 6534,
  "iterator": 6535,
  "Thread": 6536,
  "(size": 6537,
  "Ġnone": 6538,
  ".has": 6539,
  "_X": 6540,
  "sort": 6541,
  "nap": 6542,
  "pet": 6543,
  "bin": 6544,
  "ĠCanada": 6545,
  "They": 6546,
  "Ġdans": 6547,
  "ĠMat": 6548,
  "<td": 6549,
  "Ġhair": 6550,
  "Ġcu": 6551,
  "Ġlaws": 6552,
  "leted": 6553,
  "ped": 6554,
  "Ġpow": 6555,
  "Ġknew": 6556,
  "_COM": 6557,
  "_,": 6558,
  "ĠMag": 6559,
  "idents": 6560,
  "(req": 6561,
  "Ġ),": 6562,
  "-center": 6563,
  "Ġwide": 6564,
  "ĠAuthor": 6565,
  "stants": 6566,
  "Ġjobs": 6567,
  "Ġmath": 6568,
  "etimes": 6569,
  "Boolean": 6570,
  "Ġscope": 6571,
  "_is": 6572,
  "Ġmeas": 6573,
  "Ġkeys": 6574,
  "elay": 6575,
  "Ġexactly": 6576,
  "'=>'": 6577,
  "ĠPaul": 6578,
  "mas": 6579,
  "ĉprint": 6580,
  "(len": 6581,
  "fd": 6582,
  "Ġ);": 6583,
  ".Event": 6584,
  "qli": 6585,
  "irit": 6586,
  "ields": 6587,
  "oman": 6588,
  "ĠTop": 6589,
  "Ġvote": 6590,
  "Ġmask": 6591,
  "Ġtheme": 6592,
  "Ġprops": 6593,
  "Ġfine": 6594,
  "Ġwriter": 6595,
  "_offset": 6596,
  "car": 6597,
  "Ġaltern": 6598,
  "Ġcopyright": 6599,
  "Ġdestroy": 6600,
  "pper": 6601,
  "Ġgenerate": 6602,
  "pped": 6603,
  "ĠĠĠĠĠĠĊ": 6604,
  "make": 6605,
  "ĠShow": 6606,
  "Ġbrowser": 6607,
  "Ġfavorite": 6608,
  "Ġcareer": 6609,
  "Ġhappened": 6610,
  "(char": 6611,
  "Ġrecommend": 6612,
  "Ġliter": 6613,
  ".filter": 6614,
  "grade": 6615,
  "Phone": 6616,
  "oms": 6617,
  "Ġnamed": 6618,
  "-label": 6619,
  "ipo": 6620,
  "ĠOther": 6621,
  "Ġpanel": 6622,
  "Ġrock": 6623,
  "Scale": 6624,
  "ĉassert": 6625,
  "Ġtrust": 6626,
  "front": 6627,
  "Ġdemon": 6628,
  "Ar": 6629,
  "Net": 6630,
  "Ġeconomic": 6631,
  "footer": 6632,
  "Ġrace": 6633,
  "(node": 6634,
  "ĠOption": 6635,
  "split": 6636,
  "Ġphysical": 6637,
  "ifest": 6638,
  "Ġremoved": 6639,
  ".http": 6640,
  "Ġlooked": 6641,
  "';": 6642,
  "ding": 6643,
  "gest": 6644,
  "aturday": 6645,
  "/licenses": 6646,
  "Price": 6647,
  "Ġdro": 6648,
  "Ġtowards": 6649,
  "Ġuns": 6650,
  "ĠCL": 6651,
  "ĉstatic": 6652,
  "Ġrows": 6653,
  "Ġdefine": 6654,
  ".replace": 6655,
  "Ġfather": 6656,
  "ĠDesign": 6657,
  "assign": 6658,
  "mut": 6659,
  "Device": 6660,
  "Did": 6661,
  "ometry": 6662,
  "ayload": 6663,
  "Ġhistor": 6664,
  "ĠParam": 6665,
  "ĠBoolean": 6666,
  "Ġnature": 6667,
  "Ġjs": 6668,
  "Ġnation": 6669,
  "ih": 6670,
  "Ġdiscover": 6671,
  "sem": 6672,
  "Handle": 6673,
  "ĉr": 6674,
  "ĠTechn": 6675,
  "Ġwall": 6676,
  "{$": 6677,
  "@property": 6678,
  "Ġ\"../": 6679,
  "Ġexam": 6680,
  ".draw": 6681,
  "opping": 6682,
  "Ġnearly": 6683,
  "Ġcool": 6684,
  "Ġindepend": 6685,
  "RES": 6686,
  "Ġhandler": 6687,
  "ĠMonday": 6688,
  "Ġsun": 6689,
  "Styles": 6690,
  "ously": 6691,
  "Ġĉ": 6692,
  "vest": 6693,
  "Display": 6694,
  "(y": 6695,
  "atically": 6696,
  "Ġpredict": 6697,
  "ying": 6698,
  "Ġsometimes": 6699,
  "Ġdrink": 6700,
  "Ġbul": 6701,
  "ifications": 6702,
  ".insert": 6703,
  ".reg": 6704,
  "Ġtests": 6705,
  "Alignment": 6706,
  "Ġalleg": 6707,
  "Ġattribute": 6708,
  "ĠNote": 6709,
  "Ġmyself": 6710,
  "arts": 6711,
  "Now": 6712,
  "Ġinteresting": 6713,
  "lients": 6714,
  "Ġpopulation": 6715,
  "ĠCalifornia": 6716,
  "\"I": 6717,
  "Ġgreater": 6718,
  "uesday": 6719,
  "Ġthous": 6720,
  "Ġcosts": 6721,
  "Ġlaunch": 6722,
  "\\Http": 6723,
  "ker": 6724,
  "band": 6725,
  "ĠPlay": 6726,
  "Ġband": 6727,
  ".shape": 6728,
  "esome": 6729,
  "article": 6730,
  ".rf": 6731,
  "Ġwer": 6732,
  "embers": 6733,
  "usr": 6734,
  "BA": 6735,
  "ican": 6736,
  "ett": 6737,
  "validate": 6738,
  "ulti": 6739,
  "Ġimmediately": 6740,
  "zer": 6741,
  "Ġfigure": 6742,
  "oes": 6743,
  "eller": 6744,
  "ircle": 6745,
  "ĠSign": 6746,
  ".db": 6747,
  "Ġrank": 6748,
  "Bytes": 6749,
  "Ġprojects": 6750,
  "_rec": 6751,
  "ULAR": 6752,
  "API": 6753,
  "ĠLine": 6754,
  "Port": 6755,
  "Ġpoll": 6756,
  "Ġgiving": 6757,
  "idence": 6758,
  "Ġplot": 6759,
  "icial": 6760,
  "Ġwarrant": 6761,
  "ITION": 6762,
  "ĠDouble": 6763,
  "Ġbillion": 6764,
  "gorithm": 6765,
  "Ġequipment": 6766,
  "DATE": 6767,
  "Ġ@\"": 6768,
  "EE": 6769,
  "Ġple": 6770,
  "iation": 6771,
  "Ġheaders": 6772,
  "Ġproced": 6773,
  ".ComponentModel": 6774,
  "ĠObama": 6775,
  "Ġpa": 6776,
  "ĠBest": 6777,
  "imately": 6778,
  ".getString": 6779,
  ".\\": 6780,
  "mploy": 6781,
  "Ġraw": 6782,
  "_block": 6783,
  "undred": 6784,
  ".GroupLayout": 6785,
  "Ġbrought": 6786,
  "NSString": 6787,
  "throw": 6788,
  "created": 6789,
  ".New": 6790,
  "_view": 6791,
  "CP": 6792,
  "eps": 6793,
  "Op": 6794,
  "Ġgratis": 6795,
  "Ġ'\"": 6796,
  "Ġinterview": 6797,
  "Ġpartial": 6798,
  "Ġaria": 6799,
  "bing": 6800,
  "Author": 6801,
  "Book": 6802,
  "ĠPat": 6803,
  "uman": 6804,
  "Users": 6805,
  "plus": 6806,
  "ĠDirect": 6807,
  "venue": 6808,
  "alpha": 6809,
  "UCCESS": 6810,
  "ĠCall": 6811,
  "imated": 6812,
  "Ġremain": 6813,
  "Ġanti": 6814,
  "ĠLondon": 6815,
  "Ġsafety": 6816,
  "POSE": 6817,
  "oles": 6818,
  "controller": 6819,
  "Byte": 6820,
  "ĠCourt": 6821,
  "ĠPhil": 6822,
  "ĠAssoci": 6823,
  "ena": 6824,
  "_STR": 6825,
  "coin": 6826,
  "reshold": 6827,
  "Ġbatch": 6828,
  "_Click": 6829,
  "entication": 6830,
  "enty": 6831,
  "Ġbeginning": 6832,
  "Ġzero": 6833,
  "ĠConvert": 6834,
  "Ġterr": 6835,
  "Ġpaid": 6836,
  "Ġincreased": 6837,
  "catch": 6838,
  "-size": 6839,
  "activity": 6840,
  "equals": 6841,
  "Ġqueue": 6842,
  "Ġ\"'": 6843,
  "ĠInternational": 6844,
  "ursday": 6845,
  "Ġscient": 6846,
  "allow": 6847,
  "axis": 6848,
  "Ġappropri": 6849,
  "edge": 6850,
  "Ġidx": 6851,
  "Success": 6852,
  "entifier": 6853,
  ":\\": 6854,
  "xis": 6855,
  "Ġmaximum": 6856,
  "arks": 6857,
  "Ġbirth": 6858,
  "(index": 6859,
  "Ġmaybe": 6860,
  ".py": 6861,
  "files": 6862,
  "Ġlimited": 6863,
  "_check": 6864,
  "look": 6865,
  "plies": 6866,
  "Ġmovement": 6867,
  "'].": 6868,
  "Ġbroad": 6869,
  "ĠBE": 6870,
  "ĠUnityEngine": 6871,
  ".cpp": 6872,
  "ĠEvery": 6873,
  "Admin": 6874,
  "Ġfans": 6875,
  "pared": 6876,
  "ĊĠĠĠĠĊ": 6877,
  "Ġforeign": 6878,
  "Ġpan": 6879,
  "Ġtour": 6880,
  "ĠOrder": 6881,
  "Ġmoving": 6882,
  "Ġauf": 6883,
  "Call": 6884,
  "cb": 6885,
  "ventory": 6886,
  "ĠSql": 6887,
  "Ġfully": 6888,
  "ClickListener": 6889,
  "WORD": 6890,
  "Ġannounced": 6891,
  "Ġagreed": 6892,
  "rie": 6893,
  "Ġearn": 6894,
  "_link": 6895,
  ".array": 6896,
  "(text": 6897,
  "Ġmaterials": 6898,
  ",p": 6899,
  "ffff": 6900,
  "vg": 6901,
  "Ġunless": 6902,
  "ajax": 6903,
  "LOG": 6904,
  "Ġsexual": 6905,
  "Ġ\\\"": 6906,
  "-time": 6907,
  "Ġcoach": 6908,
  "Ġsupported": 6909,
  "Ġphotos": 6910,
  "iform": 6911,
  ".Create": 6912,
  ")]": 6913,
  "rier": 6914,
  "Ġdialog": 6915,
  "aver": 6916,
  "ige": 6917,
  ")+": 6918,
  "_idx": 6919,
  ":[": 6920,
  "_min": 6921,
  "ĠCong": 6922,
  "Ġpressure": 6923,
  "Ġteams": 6924,
  "Sign": 6925,
  "begin": 6926,
  "rian": 6927,
  "NESS": 6928,
  "LS": 6929,
  "Ġimprove": 6930,
  "ĠSunday": 6931,
  "Ġdefinition": 6932,
  "iger": 6933,
  "rollers": 6934,
  "Ġthinking": 6935,
  "Template": 6936,
  "-F": 6937,
  "Ġemerg": 6938,
  "plates": 6939,
  "ĠUSA": 6940,
  ".setState": 6941,
  "ĠAlso": 6942,
  "rev": 6943,
  "Ġenable": 6944,
  "ĠCO": 6945,
  "PECT": 6946,
  "Ġconcept": 6947,
  ")-": 6948,
  "Ġsets": 6949,
  "Ġmeaning": 6950,
  "emon": 6951,
  "ĠCons": 6952,
  "cmp": 6953,
  "eder": 6954,
  "anned": 6955,
  "icensed": 6956,
  "ĠSuper": 6957,
  "Ġdaily": 6958,
  "Ġmulti": 6959,
  "_u": 6960,
  "Ġchalleng": 6961,
  "_mode": 6962,
  "ĠPromise": 6963,
  "Ġstrict": 6964,
  "jo": 6965,
  "inton": 6966,
  "(list": 6967,
  "Only": 6968,
  ">{": 6969,
  "Ġvehicle": 6970,
  "ĠPlayer": 6971,
  "ĠDel": 6972,
  "Ġpool": 6973,
  ".url": 6974,
  "nesday": 6975,
  "Local": 6976,
  "Ġorganization": 6977,
  "render": 6978,
  "ĠApplication": 6979,
  "Ġsummer": 6980,
  "expected": 6981,
  "NA": 6982,
  "Ġrap": 6983,
  "_obj": 6984,
  "Ġsurface": 6985,
  "ĠPUR": 6986,
  "Ġvariables": 6987,
  "(message": 6988,
  "Ġopin": 6989,
  ".back": 6990,
  "Ġworkers": 6991,
  "vm": 6992,
  "Co": 6993,
  "ughter": 6994,
  "Ġmaster": 6995,
  "Ġ\"\",": 6996,
  "Ġstories": 6997,
  ".User": 6998,
  "Ġcelebr": 6999,
  "inese": 7000,
  "BS": 7001,
  "ĠCommand": 7002,
  "ashboard": 7003,
  "Ġog": 7004,
  "kg": 7005,
  ".image": 7006,
  ".style": 7007,
  "Ġsteps": 7008,
  "ĠBen": 7009,
  "(args": 7010,
  "ĠPerson": 7011,
  ",y": 7012,
  "Ġofficials": 7013,
  "Ġskills": 7014,
  "vc": 7015,
  "Ġbuilder": 7016,
  "Ġgar": 7017,
  "Account": 7018,
  "ĠAuth": 7019,
  "ĠAT": 7020,
  "nn": 7021,
  ".Int": 7022,
  "SSERT": 7023,
  "Ġeffective": 7024,
  "LETE": 7025,
  "Ġtools": 7026,
  "ARD": 7027,
  "Ġdigital": 7028,
  "Double": 7029,
  "ĠFind": 7030,
  "RC": 7031,
  "Ġinline": 7032,
  "/r": 7033,
  "ARAM": 7034,
  "ASK": 7035,
  "Ġintent": 7036,
  "aight": 7037,
  "_addr": 7038,
  "Ġrequests": 7039,
  ".first": 7040,
  "Ġdebug": 7041,
  "Ġspent": 7042,
  "Ġprincip": 7043,
  "Logger": 7044,
  "cludes": 7045,
  ".use": 7046,
  "Ġsurv": 7047,
  "media": 7048,
  "ĠFebruary": 7049,
  "ĠMac": 7050,
  "Ġmissing": 7051,
  "Ġwife": 7052,
  "Ġtalking": 7053,
  "ĠMake": 7054,
  "Ġcart": 7055,
  "Ġlocated": 7056,
  "Enc": 7057,
  "-a": 7058,
  "chron": 7059,
  "Ġcards": 7060,
  "Ġguy": 7061,
  "Ġpers": 7062,
  "ĠYes": 7063,
  "atever": 7064,
  "ĠAng": 7065,
  "olar": 7066,
  "ĠEven": 7067,
  "Ġaccur": 7068,
  "ĠPower": 7069,
  "ĠGold": 7070,
  "clear": 7071,
  "Process": 7072,
  "Ġrecords": 7073,
  "Ġkilled": 7074,
  ".clear": 7075,
  "ĠWARRANTIES": 7076,
  "Ġpurpose": 7077,
  "panel": 7078,
  "JECT": 7079,
  "Ġexerc": 7080,
  "WS": 7081,
  "/L": 7082,
  ".exports": 7083,
  "Ġ___": 7084,
  "Ġsin": 7085,
  "Servlet": 7086,
  ".delete": 7087,
  "roke": 7088,
  "Sl": 7089,
  "ugh": 7090,
  "ears": 7091,
  "Ġpointer": 7092,
  "Ġhop": 7093,
  "allery": 7094,
  "Ġobs": 7095,
  "covery": 7096,
  "ĉchar": 7097,
  "ĉĉĉĉĉĉĉĉĉĉ": 7098,
  "ĉdef": 7099,
  "ocity": 7100,
  "itchen": 7101,
  "ulations": 7102,
  "ĠFIT": 7103,
  "Ġ).": 7104,
  "straints": 7105,
  "vention": 7106,
  "Ġrequires": 7107,
  "ĠOper": 7108,
  "ME": 7109,
  "OUNT": 7110,
  "allet": 7111,
  "Ġnorm": 7112,
  "IRE": 7113,
  "exas": 7114,
  "Ġprograms": 7115,
  "Ġweak": 7116,
  "'.$": 7117,
  "uing": 7118,
  "ĉĠĠĠĠĠĠĠ": 7119,
  "Ġmil": 7120,
  "Ġfirm": 7121,
  "initely": 7122,
  "_VALUE": 7123,
  "apse": 7124,
  "atisf": 7125,
  "Ġdemand": 7126,
  "_mod": 7127,
  "Ġdescribed": 7128,
  "Ġplaces": 7129,
  "VID": 7130,
  "Ġalone": 7131,
  "Ġexport": 7132,
  "Ġvec": 7133,
  "ĠMax": 7134,
  "Ġactivities": 7135,
  "ictures": 7136,
  "gener": 7137,
  "Ġma": 7138,
  "Ġexpression": 7139,
  "Callback": 7140,
  "_content": 7141,
  "ĠMost": 7142,
  "Ġtesting": 7143,
  "EC": 7144,
  "CHANT": 7145,
  "Ġadjust": 7146,
  ".Threading": 7147,
  "(ctx": 7148,
  "Ġagree": 7149,
  "ighest": 7150,
  "Ġui": 7151,
  "ĠLaw": 7152,
  ".Y": 7153,
  "><?": 7154,
  "Ġpod": 7155,
  "-lg": 7156,
  "Ġdescribe": 7157,
  "ĠEuropean": 7158,
  "-sh": 7159,
  "ĠPURPOSE": 7160,
  "ORY": 7161,
  "Ġconvers": 7162,
  "ĠIlluminate": 7163,
  "ĠAv": 7164,
  "(ch": 7165,
  "?\"": 7166,
  "chen": 7167,
  "ima": 7168,
  "Document": 7169,
  "Ġoperations": 7170,
  "win": 7171,
  "ĉfunction": 7172,
  ".Image": 7173,
  "Ġscen": 7174,
  "/h": 7175,
  "ĠSC": 7176,
  "Ġexplo": 7177,
  ":%": 7178,
  "NAME": 7179,
  "(var": 7180,
  "Ġdirector": 7181,
  "ONG": 7182,
  "Ġyield": 7183,
  "Ġfeet": 7184,
  "ĠSearch": 7185,
  "ĠIl": 7186,
  "Ġrestaur": 7187,
  "duc": 7188,
  "Ġinteger": 7189,
  "Ġhighly": 7190,
  "checked": 7191,
  "ĠPARTIC": 7192,
  "ERCHANT": 7193,
  "Ġoptim": 7194,
  "Queue": 7195,
  "ĠLI": 7196,
  "itation": 7197,
  "Ġtransport": 7198,
  "ission": 7199,
  "fill": 7200,
  "usion": 7201,
  "ĠĠĠĠĠĠĠĠĠĠĠĠĠĠĠĠĠĠĠĠĠĠĠĠĠĠĠĠĠĠ": 7202,
  "ĉbool": 7203,
  "-th": 7204,
  "upt": 7205,
  "Ġessential": 7206,
  "anted": 7207,
  "Ġbenefits": 7208,
  "ĉS": 7209,
  "iki": 7210,
  "Ġgirls": 7211,
  "iced": 7212,
  "buffer": 7213,
  "]+": 7214,
  "Ġsocket": 7215,
  "Ġprices": 7216,
  "ĠFre": 7217,
  "Ġsat": 7218,
  "Ġwood": 7219,
  "MenuItem": 7220,
  "ARG": 7221,
  "ĠAdmin": 7222,
  "OWN": 7223,
  "dk": 7224,
  "Ġreset": 7225,
  "Ġforms": 7226,
  "ĠTuesday": 7227,
  "ĠInitialized": 7228,
  "_train": 7229,
  "orary": 7230,
  "ategor": 7231,
  "Ġdt": 7232,
  "Total": 7233,
  "construct": 7234,
  "ilies": 7235,
  "Ġguys": 7236,
  "Ġinstruction": 7237,
  "yled": 7238,
  "Ġinternet": 7239,
  "etadata": 7240,
  "ady": 7241,
  "faces": 7242,
  "jection": 7243,
  "ĠJack": 7244,
  "Ġrect": 7245,
  "[-": 7246,
  "ĠLeg": 7247,
  "Ġdevices": 7248,
  "OC": 7249,
  "oration": 7250,
  "ertain": 7251,
  "Ġguard": 7252,
  "ostream": 7253,
  "Ġenum": 7254,
  ".layout": 7255,
  "voke": 7256,
  "ĠOk": 7257,
  "Home": 7258,
  "(tr": 7259,
  "ETH": 7260,
  "Ġdelay": 7261,
  "Ġpurchase": 7262,
  "dc": 7263,
  "Ġaren": 7264,
  "_once": 7265,
  "ĉĉĉĉĊ": 7266,
  "ror": 7267,
  "draw": 7268,
  ".run": 7269,
  "(model": 7270,
  "Timeout": 7271,
  "lik": 7272,
  "ĠArg": 7273,
  ".en": 7274,
  "Ġfish": 7275,
  "cpy": 7276,
  "_fe": 7277,
  "ERCHANTABILITY": 7278,
  "(X": 7279,
  "_output": 7280,
  "??": 7281,
  "Ġjo": 7282,
  "andard": 7283,
  "Ġdoll": 7284,
  "errors": 7285,
  "_base": 7286,
  "ĠPARTICULAR": 7287,
  "Ġleader": 7288,
  "Ġcompar": 7289,
  "Ġdoub": 7290,
  "ĠVis": 7291,
  "StackTrace": 7292,
  "-C": 7293,
  "ĠStud": 7294,
  "stitute": 7295,
  "More": 7296,
  "ĠDescription": 7297,
  "WARE": 7298,
  "ads": 7299,
  "bind": 7300,
  "=self": 7301,
  "employ": 7302,
  "[n": 7303,
  ".all": 7304,
  "-B": 7305,
  "&&": 7306,
  "alm": 7307,
  "Ġculture": 7308,
  "house": 7309,
  "Ġsuffer": 7310,
  "Ġ'%": 7311,
  "Ġstraight": 7312,
  "ĠStar": 7313,
  "udo": 7314,
  "Ġded": 7315,
  "ĠCOM": 7316,
  "Ġconfirm": 7317,
  "ĠGood": 7318,
  ".sc": 7319,
  "________________": 7320,
  "DR": 7321,
  "Configuration": 7322,
  "DateTime": 7323,
  "Ġadvert": 7324,
  "Ġcouldn": 7325,
  "async": 7326,
  "stack": 7327,
  "Kit": 7328,
  "Ġhous": 7329,
  "Ġmechan": 7330,
  "rate": 7331,
  "Ġaudio": 7332,
  "ĉcout": 7333,
  "cores": 7334,
  "Ġspot": 7335,
  "Ġincreasing": 7336,
  "Ġ##": 7337,
  ")))": 7338,
  "points": 7339,
  "Ġcompared": 7340,
  "lig": 7341,
  "Ġbehavior": 7342,
  "ĠBY": 7343,
  "ĠAtt": 7344,
  "craft": 7345,
  "headers": 7346,
  "ete": 7347,
  "endregion": 7348,
  "Ġdetail": 7349,
  "ULE": 7350,
  "ĠCommon": 7351,
  "ĉprotected": 7352,
  "ston": 7353,
  "ĠFITNESS": 7354,
  "Ġfresh": 7355,
  ".example": 7356,
  "berg": 7357,
  "Ġmoved": 7358,
  "ĉe": 7359,
  "ĠSaturday": 7360,
  "Ġpayload": 7361,
  "Ġbey": 7362,
  "urer": 7363,
  "<script": 7364,
  "Ġsymbol": 7365,
  "Ġassum": 7366,
  "Ġpul": 7367,
  "Effect": 7368,
  "Ġhundred": 7369,
  "Tool": 7370,
  "aked": 7371,
  "connection": 7372,
  "Ġvoice": 7373,
  "Ġpd": 7374,
  "Ġtransaction": 7375,
  "Ġlinks": 7376,
  "Err": 7377,
  "ĠIndian": 7378,
  "TC": 7379,
  "atalog": 7380,
  "ni": 7381,
  "sign": 7382,
  "<<\"": 7383,
  "ji": 7384,
  "ya": 7385,
  "Ġdemonstr": 7386,
  "ulated": 7387,
  ".St": 7388,
  "Ġinstit": 7389,
  "Ġboost": 7390,
  "Ġcells": 7391,
  "olic": 7392,
  ".Pro": 7393,
  ":</": 7394,
  "EventListener": 7395,
  "ifying": 7396,
  "ĠDi": 7397,
  "orrow": 7398,
  ".execute": 7399,
  "Ġcollege": 7400,
  "Your": 7401,
  "Ġlargest": 7402,
  ".dis": 7403,
  "Ġqui": 7404,
  "Ġindividuals": 7405,
  "_buffer": 7406,
  "Ġng": 7407,
  "SA": 7408,
  "ĠControl": 7409,
  "Ġsing": 7410,
  "Ġsuit": 7411,
  "ĠĠĠĠĉ": 7412,
  "SG": 7413,
  "Ġjump": 7414,
  "Ġsmart": 7415,
  "oma": 7416,
  "ĠExp": 7417,
  "Ġ'-": 7418,
  "Ġassist": 7419,
  "Ġsuccessfully": 7420,
  "sys": 7421,
  "ĠCre": 7422,
  "_ref": 7423,
  "ĠThursday": 7424,
  "Ġbur": 7425,
  "Ġbeyond": 7426,
  "Ġnodes": 7427,
  "Details": 7428,
  "inct": 7429,
  "ĠJames": 7430,
  "Ġaffect": 7431,
  "exception": 7432,
  "Ġtypeof": 7433,
  "-se": 7434,
  "Ġfetch": 7435,
  "`,": 7436,
  "Ġcrusher": 7437,
  "}.": 7438,
  "ĠBO": 7439,
  "Show": 7440,
  "Ġrates": 7441,
  "Ġbon": 7442,
  "-icon": 7443,
  "ĠMedia": 7444,
  "RESS": 7445,
  "ĠValid": 7446,
  "Ġfuck": 7447,
  "acks": 7448,
  "Ġstudies": 7449,
  "Me": 7450,
  "Ġowners": 7451,
  "}else": 7452,
  "Ġgrowing": 7453,
  "Variable": 7454,
  "ĠBel": 7455,
  ".random": 7456,
  "vement": 7457,
  "onym": 7458,
  "(F": 7459,
  "ĠFALSE": 7460,
  "Ġtorch": 7461,
  "(row": 7462,
  "igo": 7463,
  "structure": 7464,
  "Ġcertainly": 7465,
  "Dep": 7466,
  "ĠGreen": 7467,
  "question": 7468,
  "Ġadding": 7469,
  "ĠDevelop": 7470,
  "_def": 7471,
  "Ġmach": 7472,
  "=%": 7473,
  "ĉĉĠ": 7474,
  "conds": 7475,
  "Project": 7476,
  "Ġreject": 7477,
  "Ġpoor": 7478,
  "Ġaware": 7479,
  "ĠBuild": 7480,
  "ĠBritish": 7481,
  "ĠNE": 7482,
  "Ġnumer": 7483,
  "rees": 7484,
  "claim": 7485,
  "Ġmock": 7486,
  "Ġom": 7487,
  "Ġscre": 7488,
  "OLD": 7489,
  ".pl": 7490,
  "eler": 7491,
  "Ġcorrespond": 7492,
  "_HE": 7493,
  "Ġbinary": 7494,
  "_order": 7495,
  "ĠSQL": 7496,
  "Ġadvant": 7497,
  "Ġprev": 7498,
  ".[": 7499,
  ".assertEqual": 7500,
  "plier": 7501,
  "arp": 7502,
  "Ġclosed": 7503,
  "Ġencour": 7504,
  "ĠQString": 7505,
  "aud": 7506,
  "Ġdeveloped": 7507,
  "Ġpermission": 7508,
  ".debug": 7509,
  "operator": 7510,
  "Ġsym": 7511,
  "atively": 7512,
  "-color": 7513,
  "ĠGET": 7514,
  "ky": 7515,
  "Ġalthough": 7516,
  "_request": 7517,
  "_element": 7518,
  "................": 7519,
  "_DATA": 7520,
  "Ġamazing": 7521,
  "Ġsb": 7522,
  "ĠDefault": 7523,
  "Events": 7524,
  "Ġfailure": 7525,
  "acle": 7526,
  "Properties": 7527,
  "Ġdream": 7528,
  "Ġdistr": 7529,
  "Ġau": 7530,
  "Ġgenerated": 7531,
  "ĠTeam": 7532,
  "USE": 7533,
  "Ġincome": 7534,
  "Ġeye": 7535,
  "_not": 7536,
  "\"],": 7537,
  "_form": 7538,
  "Support": 7539,
  "orders": 7540,
  ".Print": 7541,
  "ville": 7542,
  "ĠWednesday": 7543,
  "olver": 7544,
  "Ġoppos": 7545,
  "isation": 7546,
  "ola": 7547,
  "Close": 7548,
  "<p": 7549,
  "_width": 7550,
  "Invalid": 7551,
  "xb": 7552,
  "Ġstrugg": 7553,
  "_action": 7554,
  "Ġtxt": 7555,
  "ĠPath": 7556,
  "alar": 7557,
  "ĠMERCHANTABILITY": 7558,
  "service": 7559,
  "ĠMichael": 7560,
  "ableView": 7561,
  "Debug": 7562,
  "okes": 7563,
  "She": 7564,
  "Ġguess": 7565,
  "ĠJava": 7566,
  "_PATH": 7567,
  "Ġparticularly": 7568,
  "ĠII": 7569,
  "Ġdomain": 7570,
  "Ġreduce": 7571,
  "-left": 7572,
  "real": 7573,
  "Ġappears": 7574,
  "Ġcomo": 7575,
  "ĠUnit": 7576,
  "ĠGovern": 7577,
  "ali": 7578,
  "allel": 7579,
  "ĠJew": 7580,
  "_I": 7581,
  "Ġcos": 7582,
  ".color": 7583,
  "ĠGlobal": 7584,
  "Ġtele": 7585,
  "ben": 7586,
  "_trans": 7587,
  "Ġreasons": 7588,
  "Ġemb": 7589,
  "ensity": 7590,
  "lines": 7591,
  "omin": 7592,
  "Screen": 7593,
  "pects": 7594,
  "clip": 7595,
  "foo": 7596,
  "rent": 7597,
  "Ġaf": 7598,
  "Ġdanger": 7599,
  "iling": 7600,
  "Names": 7601,
  "Our": 7602,
  "Ġdistribution": 7603,
  "While": 7604,
  "SL": 7605,
  "Write": 7606,
  "Ġgoto": 7607,
  "Ġcolors": 7608,
  "Ġpowerful": 7609,
  "kin": 7610,
  "Ġdepth": 7611,
  "ercial": 7612,
  "ĠCongress": 7613,
  "ĠMarket": 7614,
  "Db": 7615,
  "under": 7616,
  "ĠLast": 7617,
  "greg": 7618,
  "Ġposts": 7619,
  "_URL": 7620,
  "otos": 7621,
  "Don": 7622,
  "Ġmicro": 7623,
  "Ġarrest": 7624,
  "Ġ(@": 7625,
  "ĠHot": 7626,
  "ĠIndex": 7627,
  ";&": 7628,
  "#!": 7629,
  "ĠNor": 7630,
  "ĠCap": 7631,
  "-(": 7632,
  "Ġinterested": 7633,
  "pear": 7634,
  "Ġrent": 7635,
  "Ġalbum": 7636,
  "olicy": 7637,
  ".lang": 7638,
  ".trans": 7639,
  ".format": 7640,
  "phere": 7641,
  "Ġaxis": 7642,
  "ĠBusiness": 7643,
  "ersistence": 7644,
  "urr": 7645,
  "Ġminimum": 7646,
  "endor": 7647,
  "ĠSD": 7648,
  "ĠInternet": 7649,
  "Exp": 7650,
  "iverse": 7651,
  "MM": 7652,
  "Ġobvious": 7653,
  "Ġbasis": 7654,
  "Ġscience": 7655,
  "Ġbudget": 7656,
  "izations": 7657,
  "PA": 7658,
  "Ġflags": 7659,
  "pret": 7660,
  "LOCK": 7661,
  "Ġvariety": 7662,
  "Ġtruth": 7663,
  "dt": 7664,
  "Ġgone": 7665,
  "Ġbattle": 7666,
  "<std": 7667,
  "ĠSil": 7668,
  "rf": 7669,
  "uda": 7670,
  "Ġerot": 7671,
  "ĠCam": 7672,
  "Ġstation": 7673,
  "Ġ'</": 7674,
  "cheme": 7675,
  "ĠSun": 7676,
  "Ġfinished": 7677,
  "Ġshop": 7678,
  "ĠKore": 7679,
  "Ġeight": 7680,
  "_REG": 7681,
  "ND": 7682,
  ">,": 7683,
  "\"><?": 7684,
  "(num": 7685,
  "ĉinline": 7686,
  "Transaction": 7687,
  ".On": 7688,
  "Ġmail": 7689,
  "rey": 7690,
  "results": 7691,
  "Ġnav": 7692,
  "IMIT": 7693,
  "_ids": 7694,
  "Make": 7695,
  "Modal": 7696,
  "ĠLOG": 7697,
  "ĠSur": 7698,
  "Ġinstanceof": 7699,
  "Ġoverall": 7700,
  "ĠInformation": 7701,
  "Ġconstruction": 7702,
  "_FILE": 7703,
  "but": 7704,
  "Ġmedic": 7705,
  "Ġduration": 7706,
  "itness": 7707,
  "agent": 7708,
  "AV": 7709,
  "Ġseven": 7710,
  "olf": 7711,
  "Ġcalling": 7712,
  "Ġans": 7713,
  "throws": 7714,
  "orizontal": 7715,
  "ĠuseState": 7716,
  ".fl": 7717,
  "ĠStatus": 7718,
  "ĠOnline": 7719,
  "RR": 7720,
  "ĠRich": 7721,
  "ĠHill": 7722,
  "Ġbrain": 7723,
  "Ġfollowed": 7724,
  "emic": 7725,
  "Ġslight": 7726,
  "Ġinsurance": 7727,
  ".Array": 7728,
  "Ġabstract": 7729,
  "ĠSum": 7730,
  "redirect": 7731,
  "owner": 7732,
  "(msg": 7733,
  "ĠClinton": 7734,
  "Non": 7735,
  "ĉex": 7736,
  "Ġvolume": 7737,
  "ĠEventArgs": 7738,
  "-L": 7739,
  "ĠDim": 7740,
  "ĠMart": 7741,
  "Ġcursor": 7742,
  "Ġimplementation": 7743,
  "urred": 7744,
  "Ġlarger": 7745,
  "'+": 7746,
  ".transform": 7747,
  "Ġupload": 7748,
  "ĠĠĠĠĠĠĠĠĠĠĠĠĠĠĠĠĠĠĠĠĠĠĠĠĠĠĠĠĠĠĠĠĠĠĠĠĠĠĠĠĠĠĠĠĠĠĠĠĠĠĠĠĠĠĠ": 7749,
  "Draw": 7750,
  "nel": 7751,
  "ĉfloat": 7752,
  "qrt": 7753,
  "ĠNetwork": 7754,
  "Ġtit": 7755,
  "Axis": 7756,
  ".android": 7757,
  "Ġcompleted": 7758,
  "Ġmur": 7759,
  "Ġcolumns": 7760,
  "xc": 7761,
  "Ġsupply": 7762,
  "iminal": 7763,
  "Ġspr": 7764,
  "================================================================": 7765,
  "Ġunits": 7766,
  "(u": 7767,
  "mi": 7768,
  "replace": 7769,
  "[key": 7770,
  "antic": 7771,
  "Ġpayment": 7772,
  ",B": 7773,
  "ĠApple": 7774,
  "gin": 7775,
  "Required": 7776,
  "#+": 7777,
  "lands": 7778,
  "Ġsqu": 7779,
  "Ġfactor": 7780,
  "dec": 7781,
  "Ġstrength": 7782,
  "Ġboy": 7783,
  "Ġbalance": 7784,
  "Ġsources": 7785,
  "screen": 7786,
  "-top": 7787,
  "ĠAmazon": 7788,
  "Ġhidden": 7789,
  "_client": 7790,
  "Ġeat": 7791,
  ".display": 7792,
  "Ġtrigger": 7793,
  "anager": 7794,
  "Ġtro": 7795,
  "Ġclaims": 7796,
  "ford": 7797,
  "ĠCompany": 7798,
  "Ġgift": 7799,
  ",:": 7800,
  "_app": 7801,
  "handle": 7802,
  "Ġproduce": 7803,
  "/lib": 7804,
  "Ġ-*": 7805,
  "ĉset": 7806,
  "'];": 7807,
  "arc": 7808,
  "ander": 7809,
  "ĠEngine": 7810,
  "Ġattributes": 7811,
  "task": 7812,
  "<=": 7813,
  "(N": 7814,
  "Ġwarm": 7815,
  "which": 7816,
  "ĠFore": 7817,
  "agnost": 7818,
  "mys": 7819,
  "Ġtal": 7820,
  "ĠSal": 7821,
  "gi": 7822,
  "ĠPrint": 7823,
  "ĠTRUE": 7824,
  ".UI": 7825,
  "Ġflash": 7826,
  "roperty": 7827,
  ".location": 7828,
  "ĠMill": 7829,
  "bi": 7830,
  "contr": 7831,
  ".request": 7832,
  "ĠSam": 7833,
  "Ġnegative": 7834,
  "kit": 7835,
  "Ġsett": 7836,
  ".printStackTrace": 7837,
  "abe": 7838,
  "ĉi": 7839,
  "Ġburn": 7840,
  "Ġsociety": 7841,
  "Cache": 7842,
  "ĠSecurity": 7843,
  ".models": 7844,
  "ĠWARRANTY": 7845,
  "_up": 7846,
  "ceive": 7847,
  "Ġclients": 7848,
  ".Tr": 7849,
  "Ġproviding": 7850,
  "Ġrout": 7851,
  "material": 7852,
  "ĠSer": 7853,
  "ĠOffice": 7854,
  "FTWARE": 7855,
  "Ġ'$": 7856,
  "Ġfoc": 7857,
  "Ġexcell": 7858,
  "Ġcat": 7859,
  "normal": 7860,
  "Ġdetermine": 7861,
  "ĉuint": 7862,
  "Pane": 7863,
  "Ġemployees": 7864,
  "ĠTexas": 7865,
  "Ġtraff": 7866,
  "ĠReport": 7867,
  "anta": 7868,
  "ĠBox": 7869,
  "Ġdjango": 7870,
  "Ġpartner": 7871,
  "EB": 7872,
  "LINE": 7873,
  "Ġfeeling": 7874,
  "Ġcivil": 7875,
  "(float": 7876,
  "Sql": 7877,
  "Ġwouldn": 7878,
  ".init": 7879,
  ".left": 7880,
  "-v": 7881,
  "_level": 7882,
  "'}": 7883,
  "AF": 7884,
  "Ġloading": 7885,
  "ĠOnly": 7886,
  "Ġcookies": 7887,
  "ĠGl": 7888,
  "CO": 7889,
  "Ġstrategy": 7890,
  "('./": 7891,
  "Ġship": 7892,
  "poses": 7893,
  "Ġsignal": 7894,
  "Ġalpha": 7895,
  ".pop": 7896,
  "Radius": 7897,
  "Ġreplace": 7898,
  "_DIR": 7899,
  "counter": 7900,
  "bservable": 7901,
  "ela": 7902,
  "Weight": 7903,
  "hash": 7904,
  "bose": 7905,
  "fx": 7906,
  "ĠEmail": 7907,
  "Ġrefer": 7908,
  "localhost": 7909,
  "_RO": 7910,
  "iques": 7911,
  "Step": 7912,
  "Ġahead": 7913,
  "(View": 7914,
  "ĠServices": 7915,
  "ĠJson": 7916,
  "essor": 7917,
  "Ġpun": 7918,
  "Ġappropriate": 7919,
  "akers": 7920,
  "osen": 7921,
  "posing": 7922,
  "Ġagent": 7923,
  "fc": 7924,
  "Ġtransfer": 7925,
  "Ġinvalid": 7926,
  "ĠResearch": 7927,
  "Vertex": 7928,
  "Ġgay": 7929,
  "Ġjournal": 7930,
  "[x": 7931,
  "ĠWell": 7932,
  ".Tasks": 7933,
  "Spec": 7934,
  "Ġol": 7935,
  "Ġspend": 7936,
  "ĠAustralia": 7937,
  "Match": 7938,
  ".junit": 7939,
  "ĠĠĠĠĠĠĠĠĠĠĠĠĠĠĠĠĠĠĠĠĠĠĠĠĠĠĠĠĠĠĠĠĠĠĠĠĠ": 7940,
  "ĠMAX": 7941,
  "izable": 7942,
  "clusive": 7943,
  "_valid": 7944,
  "Ġquarter": 7945,
  "yan": 7946,
  "ĠEdit": 7947,
  "arden": 7948,
  "=new": 7949,
  "Ġfrag": 7950,
  "Bit": 7951,
  "zi": 7952,
  "aine": 7953,
  "udd": 7954,
  ".Object": 7955,
  "debug": 7956,
  "Ġcash": 7957,
  "_IM": 7958,
  "Ġeen": 7959,
  "Ġcommercial": 7960,
  "ĠVideo": 7961,
  "loader": 7962,
  "Ġfixed": 7963,
  "Ġapplications": 7964,
  "Ġ_,": 7965,
  "ĠRussia": 7966,
  "itect": 7967,
  "_(": 7968,
  "ĠBlock": 7969,
  "Ġsan": 7970,
  "ĠTom": 7971,
  "Ġperhaps": 7972,
  "Ġsig": 7973,
  "levant": 7974,
  "Ġcorpor": 7975,
  "ataset": 7976,
  "ronic": 7977,
  "xe": 7978,
  "Ġeth": 7979,
  "Some": 7980,
  "pop": 7981,
  "_OK": 7982,
  "Ġtend": 7983,
  ".Res": 7984,
  "_and": 7985,
  "Ġreviews": 7986,
  "Ġwild": 7987,
  "Ġdegree": 7988,
  ".O": 7989,
  ".objects": 7990,
  "_args": 7991,
  "nil": 7992,
  "Ġdisabled": 7993,
  "Parent": 7994,
  "Ġnotes": 7995,
  "(state": 7996,
  "istrict": 7997,
  "Ġlogging": 7998,
  ".IO": 7999,
  "ĠMal": 8000,
  "DM": 8001,
  "Ġxml": 8002,
  "ĠRobert": 8003,
  "elen": 8004,
  "layout": 8005,
  "fol": 8006,
  "']))": 8007,
  ",b": 8008,
  "ĠJer": 8009,
  "filename": 8010,
  "Ġfan": 8011,
  "ĠCustom": 8012,
  "=\"\"": 8013,
  "ĠDie": 8014,
  "Bundle": 8015,
  ".utils": 8016,
  "Ġtrip": 8017,
  "MB": 8018,
  "Ġsoft": 8019,
  "_MODE": 8020,
  "Ġapplicable": 8021,
  "Ġupper": 8022,
  "ERVER": 8023,
  "_al": 8024,
  "_LOG": 8025,
  "Here": 8026,
  "wp": 8027,
  "ĠServer": 8028,
  "ĠClient": 8029,
  "Ġchem": 8030,
  "Scroll": 8031,
  "Ġhighest": 8032,
  "ĠSelect": 8033,
  "Ġ\"@": 8034,
  "ĠWhy": 8035,
  "Sec": 8036,
  "heel": 8037,
  "Operation": 8038,
  "Ġconnected": 8039,
  "irmed": 8040,
  "Ġcitiz": 8041,
  "ĠChe": 8042,
  "Ġforces": 8043,
  "Ġwww": 8044,
  "Root": 8045,
  "ANCE": 8046,
  "Many": 8047,
  "icip": 8048,
  "rgan": 8049,
  "ĠTor": 8050,
  "ĠPress": 8051,
  "ĠMor": 8052,
  "-line": 8053,
  "uled": 8054,
  ">\\": 8055,
  "Ġthus": 8056,
  "ĠRegister": 8057,
  "hol": 8058,
  "ĠChinese": 8059,
  "Ġposted": 8060,
  "Ġmagn": 8061,
  "abilities": 8062,
  "Ġdisease": 8063,
  "Ġremains": 8064,
  "ĠProf": 8065,
  "-form": 8066,
  "Ġcin": 8067,
  "organ": 8068,
  "icate": 8069,
  "Ġstress": 8070,
  "]*": 8071,
  "Ġ----------------------------------------------------------------": 8072,
  "_context": 8073,
  "orry": 8074,
  "Ġdied": 8075,
  "mat": 8076,
  "Ġstarts": 8077,
  ".Message": 8078,
  "Ġruns": 8079,
  "Ġguide": 8080,
  "Ġwarranty": 8081,
  "entials": 8082,
  "dict": 8083,
  "ĠSize": 8084,
  "uler": 8085,
  "Ġresponsible": 8086,
  "_SET": 8087,
  "Ġcontaining": 8088,
  "ĠPrice": 8089,
  "||": 8090,
  "FS": 8091,
  "Ġemp": 8092,
  "_button": 8093,
  "(uint": 8094,
  "Ġsuff": 8095,
  "pth": 8096,
  "Ġdefinitely": 8097,
  "pute": 8098,
  "Ġmarketing": 8099,
  "ĠWH": 8100,
  "ĠSie": 8101,
  "+=": 8102,
  "OLOR": 8103,
  "Ġconsult": 8104,
  "Ġsigned": 8105,
  "Ġsequence": 8106,
  "lee": 8107,
  "Ġrequirements": 8108,
  "hy": 8109,
  "Express": 8110,
  "MT": 8111,
  "sey": 8112,
  "Ġult": 8113,
  "elligence": 8114,
  "Ġanaly": 8115,
  "Ġdress": 8116,
  "engine": 8117,
  "ĠGreat": 8118,
  "ĠAndroid": 8119,
  "ĠAlex": 8120,
  "mode": 8121,
  "Dictionary": 8122,
  ".Date": 8123,
  "VICE": 8124,
  "Ġfamilies": 8125,
  "ĠRussian": 8126,
  "ĠTimes": 8127,
  ".call": 8128,
  "$(": 8129,
  "Profile": 8130,
  "Ġfolder": 8131,
  "ches": 8132,
  "Ġlegis": 8133,
  "_row": 8134,
  "unes": 8135,
  "Ġ}).": 8136,
  "Assert": 8137,
  "agen": 8138,
  "ĠHand": 8139,
  "Iter": 8140,
  "Ġbiggest": 8141,
  "oreach": 8142,
  "Ġpolic": 8143,
  "Ġpermissions": 8144,
  "Ġshowed": 8145,
  "ĠElement": 8146,
  "Ġtopic": 8147,
  "road": 8148,
  "ĠBank": 8149,
  "record": 8150,
  "Ġpartners": 8151,
  "ĠRef": 8152,
  "essions": 8153,
  "Ġassess": 8154,
  "UST": 8155,
  "ĠParty": 8156,
  "produ": 8157,
  "LC": 8158,
  "Ġul": 8159,
  ".form": 8160,
  "hide": 8161,
  "copy": 8162,
  "UTF": 8163,
  "ĠSOFTWARE": 8164,
  "čĊčĊčĊ": 8165,
  "ĠLin": 8166,
  "una": 8167,
  "ugar": 8168,
  "Ġadministration": 8169,
  "Ġopening": 8170,
  "Ġscan": 8171,
  "Ġcontinued": 8172,
  "component": 8173,
  ".sp": 8174,
  "Ġhappens": 8175,
  "ummy": 8176,
  "ĠPR": 8177,
  ".File": 8178,
  "ĠDownload": 8179,
  "Loading": 8180,
  "di": 8181,
  "Ġwaiting": 8182,
  "_ADD": 8183,
  "Tab": 8184,
  ".querySelector": 8185,
  "Ġeconomy": 8186,
  "ĠFrench": 8187,
  "txt": 8188,
  "Ġfant": 8189,
  "Holder": 8190,
  "SH": 8191,
  "Ġnumpy": 8192,
  "Ġstreet": 8193,
  "Ġmale": 8194,
  "\\Model": 8195,
  "anging": 8196,
  "ĠBill": 8197,
  "Ġpreviously": 8198,
  "BI": 8199,
  "ĠSecret": 8200,
  "Ġmist": 8201,
  "ĠField": 8202,
  "ups": 8203,
  "ĠProcess": 8204,
  "Ġkept": 8205,
  "ĠOT": 8206,
  "Ġtraditional": 8207,
  ".i": 8208,
  "amin": 8209,
  "Ġhelps": 8210,
  "Any": 8211,
  "origin": 8212,
  "ilters": 8213,
  "ju": 8214,
  "desc": 8215,
  "ĠAccount": 8216,
  "ktop": 8217,
  "olly": 8218,
  "Ġfs": 8219,
  "Ġut": 8220,
  "Ġcentral": 8221,
  "(test": 8222,
  ".An": 8223,
  "Ġsatisf": 8224,
  "GR": 8225,
  "ĠFull": 8226,
  "Ġheat": 8227,
  "iber": 8228,
  "Ġonto": 8229,
  "mos": 8230,
  "Schema": 8231,
  "Ġfactory": 8232,
  "\".$": 8233,
  "aws": 8234,
  "Statement": 8235,
  "(target": 8236,
  "ĉnew": 8237,
  ".be": 8238,
  "Ġguest": 8239,
  "Ġmal": 8240,
  "ARY": 8241,
  "Ġreached": 8242,
  "Ġmouse": 8243,
  "Ġchallenge": 8244,
  "ĉdouble": 8245,
  "ĠTem": 8246,
  "Ġterror": 8247,
  "Ġextract": 8248,
  "_TO": 8249,
  "Ġseparate": 8250,
  "Ġmir": 8251,
  "help": 8252,
  "Ġcapacity": 8253,
  "ĠProperty": 8254,
  "kan": 8255,
  "_create": 8256,
  "ĠLight": 8257,
  ".parent": 8258,
  "Ġunderstanding": 8259,
  "Ġeasier": 8260,
  "Ġ|=": 8261,
  "Ġenh": 8262,
  "Ġfat": 8263,
  "Ġprotest": 8264,
  "amm": 8265,
  "_AT": 8266,
  "-of": 8267,
  "ils": 8268,
  "ĠOh": 8269,
  "Ġpsych": 8270,
  "Ġ$.": 8271,
  "inds": 8272,
  "Ġrelative": 8273,
  "shop": 8274,
  "short": 8275,
  "ĠSand": 8276,
  "uestion": 8277,
  "Ġfear": 8278,
  ".context": 8279,
  "Ġschools": 8280,
  "Ġserve": 8281,
  "zone": 8282,
  "_db": 8283,
  "Ġmajority": 8284,
  "example": 8285,
  "Ġlang": 8286,
  "ĉĠĠ": 8287,
  "Register": 8288,
  "endo": 8289,
  "Ġprocessing": 8290,
  "_template": 8291,
  "-user": 8292,
  "Ġeg": 8293,
  "COM": 8294,
  "ĠBlue": 8295,
  "iro": 8296,
  "Ġremote": 8297,
  "ĠIT": 8298,
  "#!/": 8299,
  "Ġredistrib": 8300,
  "raz": 8301,
  "ĠSince": 8302,
  "ĠTur": 8303,
  "Background": 8304,
  "===": 8305,
  "Ġreflect": 8306,
  "Ġpros": 8307,
  "cmd": 8308,
  "Ġwhom": 8309,
  "Compat": 8310,
  "ĠAre": 8311,
  "Identifier": 8312,
  "ĠThom": 8313,
  "_port": 8314,
  "gu": 8315,
  "Ġmonitor": 8316,
  "rm": 8317,
  "Ġpatient": 8318,
  "verter": 8319,
  "Ġgain": 8320,
  "-ui": 8321,
  "Inst": 8322,
  "Ġdies": 8323,
  "Area": 8324,
  "_filter": 8325,
  "Ġgrat": 8326,
  "Ġreality": 8327,
  "ordinate": 8328,
  "olved": 8329,
  "Contact": 8330,
  "Ġcompliance": 8331,
  "_or": 8332,
  "ĠVar": 8333,
  "dl": 8334,
  "Ġappend": 8335,
  "GER": 8336,
  "(max": 8337,
  ".render": 8338,
  "Ġdynamic": 8339,
  "ordinates": 8340,
  "_options": 8341,
  "_column": 8342,
  "Ġbatter": 8343,
  "space": 8344,
  "La": 8345,
  "ĠSource": 8346,
  "/bin": 8347,
  "Ġdos": 8348,
  "ĠBoard": 8349,
  "ĠThread": 8350,
  "ĠAL": 8351,
  "(config": 8352,
  "ĠMer": 8353,
  "Ġmiles": 8354,
  "_header": 8355,
  "ETHOD": 8356,
  "izz": 8357,
  "Ġbenefit": 8358,
  "Ġintegr": 8359,
  "(current": 8360,
  "ulo": 8361,
  ".default": 8362,
  "ĠDiv": 8363,
  "Ġton": 8364,
  "oth": 8365,
  "ervation": 8366,
  "edom": 8367,
  "Ġbaby": 8368,
  "ceived": 8369,
  ".top": 8370,
  "riority": 8371,
  "ĠLocal": 8372,
  "riage": 8373,
  "Ġattacks": 8374,
  "Ġhospital": 8375,
  "Ġfemale": 8376,
  "ĠLogin": 8377,
  "ĠFlor": 8378,
  "Ġchain": 8379,
  "ashion": 8380,
  "Texture": 8381,
  "Save": 8382,
  "Ġfarm": 8383,
  ".contains": 8384,
  ".Test": 8385,
  "Ġknows": 8386,
  "Ġgenerally": 8387,
  "ipeline": 8388,
  "Ġmeant": 8389,
  "encia": 8390,
  "Ġnicht": 8391,
  "Ġcontents": 8392,
  "PM": 8393,
  "chedule": 8394,
  "(line": 8395,
  "CG": 8396,
  "job": 8397,
  "ĠReal": 8398,
  "uer": 8399,
  "firm": 8400,
  "etro": 8401,
  "Ġspeech": 8402,
  "Ġthr": 8403,
  "foreach": 8404,
  "Ġwarn": 8405,
  "ĉl": 8406,
  "Ġheavy": 8407,
  "<li": 8408,
  "Ne": 8409,
  "Ġinvestigation": 8410,
  "Math": 8411,
  "-title": 8412,
  "Ġchurch": 8413,
  "Ġdespite": 8414,
  "chain": 8415,
  "Ġwhatever": 8416,
  "arian": 8417,
  "fn": 8418,
  "Ġmeta": 8419,
  "UFF": 8420,
  "Ġregarding": 8421,
  "_SUCCESS": 8422,
  "mes": 8423,
  "ĠIntent": 8424,
  "Ġresolve": 8425,
  "poss": 8426,
  "ira": 8427,
  "force": 8428,
  "oice": 8429,
  "Ġpm": 8430,
  "Ġupdates": 8431,
  "Arr": 8432,
  "testing": 8433,
  "Ġtoward": 8434,
  "ntax": 8435,
  "Ġlisten": 8436,
  "Ġgoals": 8437,
  "InstanceState": 8438,
  "Dr": 8439,
  "Ġrare": 8440,
  "Ġtrail": 8441,
  "Keys": 8442,
  "Cal": 8443,
  "Car": 8444,
  "ĠPeople": 8445,
  "ĉlocal": 8446,
  "classes": 8447,
  "Reference": 8448,
  ".forEach": 8449,
  "emb": 8450,
  "activ": 8451,
  "Ġprim": 8452,
  "redict": 8453,
  "Ġrad": 8454,
  ".Back": 8455,
  "Ġspread": 8456,
  "Ġclock": 8457,
  "Ġvir": 8458,
  "editor": 8459,
  "Ġefforts": 8460,
  "Ġbranch": 8461,
  "Ġindust": 8462,
  "Ġmotor": 8463,
  "Ġamb": 8464,
  "Ġdatetime": 8465,
  "Ġrencont": 8466,
  "ĠChristian": 8467,
  "ĠAmericans": 8468,
  "full": 8469,
  "Ġfmt": 8470,
  ".main": 8471,
  "Ġcaused": 8472,
  "_update": 8473,
  "ĠContent": 8474,
  "ATCH": 8475,
  "Ġbath": 8476,
  "ĠEach": 8477,
  "Ġradio": 8478,
  "achment": 8479,
  "uzz": 8480,
  "Submit": 8481,
  "Ġrestrict": 8482,
  "abin": 8483,
  "ĠLoad": 8484,
  "Ġextension": 8485,
  "Ġessay": 8486,
  "Ġhat": 8487,
  "aviour": 8488,
  "toBe": 8489,
  "\":[": 8490,
  "Ġoffered": 8491,
  "Ġvill": 8492,
  "(double": 8493,
  "bc": 8494,
  "_free": 8495,
  "ĠMiss": 8496,
  "ĠBer": 8497,
  "ĠLike": 8498,
  "Ġhelped": 8499,
  ".getName": 8500,
  "_AL": 8501,
  "Ġspirit": 8502,
  "ĠApache": 8503,
  "ws": 8504,
  "Ġtherefore": 8505,
  "(params": 8506,
  "_img": 8507,
  "Ġpeace": 8508,
  "Ġincor": 8509,
  "ĠEXPECT": 8510,
  "Ġminor": 8511,
  "ipes": 8512,
  "ĉdata": 8513,
  "selector": 8514,
  "city": 8515,
  "trie": 8516,
  ".base": 8517,
  "_frame": 8518,
  "Ġopened": 8519,
  "/json": 8520,
  "LY": 8521,
  "nu": 8522,
  ".De": 8523,
  "tf": 8524,
  "margin": 8525,
  ".Parse": 8526,
  "Ġpi": 8527,
  "Ġeq": 8528,
  "bd": 8529,
  "Fields": 8530,
  "ĠTree": 8531,
  "Ġban": 8532,
  "istan": 8533,
  "ĊĠĠĠĠĠĠĠĠĊ": 8534,
  "ĉgl": 8535,
  "Ġproduced": 8536,
  "system": 8537,
  "Mark": 8538,
  "_hash": 8539,
  "Ġbg": 8540,
  "Ġconstit": 8541,
  "ĠLeague": 8542,
  "Ġmission": 8543,
  "_format": 8544,
  "clusion": 8545,
  "!\"": 8546,
  "break": 8547,
  "ĉswitch": 8548,
  "Ġther": 8549,
  "Transform": 8550,
  "Ġfootball": 8551,
  "-link": 8552,
  "route": 8553,
  ".auth": 8554,
  "Ġbag": 8555,
  "overs": 8556,
  "Ġenabled": 8557,
  "Ġrac": 8558,
  "(I": 8559,
  "CR": 8560,
  "ancing": 8561,
  "Ġmanaged": 8562,
  "_q": 8563,
  "NGTH": 8564,
  "Ġmac": 8565,
  "ĠAuto": 8566,
  "amente": 8567,
  "Ġ'',": 8568,
  ".Append": 8569,
  "Ġpin": 8570,
  ".item": 8571,
  "acking": 8572,
  "Ġoccas": 8573,
  "person": 8574,
  "Ġti": 8575,
  ".Reg": 8576,
  "Ġhaven": 8577,
  "Ġglass": 8578,
  "Ġ\"</": 8579,
  "ĠSimple": 8580,
  "Print": 8581,
  "Ġsurround": 8582,
  "NO": 8583,
  "ĠĠĠĠĠĠĠĠčĊ": 8584,
  "ĠMany": 8585,
  "Ġ\"_": 8586,
  "Ġweekend": 8587,
  "Ġsomew": 8588,
  ".params": 8589,
  "small": 8590,
  "ATED": 8591,
  "Ġplugin": 8592,
  "fields": 8593,
  "ĠInitialize": 8594,
  "oon": 8595,
  "atile": 8596,
  "ye": 8597,
  "Ġvous": 8598,
  "LAG": 8599,
  "Ġolder": 8600,
  "Ġgam": 8601,
  "Ġextremely": 8602,
  "Ġhet": 8603,
  "enum": 8604,
  "ĠSET": 8605,
  "xff": 8606,
  "Ġtimer": 8607,
  "/index": 8608,
  "Ġcritical": 8609,
  "Rows": 8610,
  "_argument": 8611,
  "Ġexecute": 8612,
  "Ġshowing": 8613,
  ".xml": 8614,
  "-list": 8615,
  "Role": 8616,
  "typename": 8617,
  "_method": 8618,
  "that": 8619,
  "cher": 8620,
  "XT": 8621,
  "Ġthousands": 8622,
  "ĉn": 8623,
  "Ġresp": 8624,
  "_price": 8625,
  "olut": 8626,
  "Ag": 8627,
  "ĠTwo": 8628,
  "Ġbecomes": 8629,
  "Ġhus": 8630,
  ".Use": 8631,
  "theme": 8632,
  "urb": 8633,
  "erialize": 8634,
  "ARN": 8635,
  "Ġlose": 8636,
  "Lower": 8637,
  "Ġvel": 8638,
  "Ġdefense": 8639,
  "condition": 8640,
  "Ġbes": 8641,
  "Ġdry": 8642,
  "Ġscroll": 8643,
  ".Show": 8644,
  "IEL": 8645,
  "ĠRest": 8646,
  "Where": 8647,
  "oods": 8648,
  "ĠJes": 8649,
  "Ġwire": 8650,
  "_INFO": 8651,
  "Ġstrings": 8652,
  "gment": 8653,
  "Ġmatches": 8654,
  "Ġelectric": 8655,
  "Ġexcellent": 8656,
  "ĠCouncil": 8657,
  "idade": 8658,
  "Ġwx": 8659,
  "push": 8660,
  "_entry": 8661,
  "Ġtasks": 8662,
  "Ġrich": 8663,
  "sa": 8664,
  "ĠSmith": 8665,
  "UNCTION": 8666,
  "Pointer": 8667,
  "pective": 8668,
  "Ġwidget": 8669,
  "ista": 8670,
  "Ġagency": 8671,
  "Ġsich": 8672,
  "ologies": 8673,
  "Ġtrial": 8674,
  "alysis": 8675,
  ".check": 8676,
  "ARK": 8677,
  "ĠonChange": 8678,
  "about": 8679,
  "',$": 8680,
  "(val": 8681,
  "Ġplaced": 8682,
  "_NO": 8683,
  "Ġdan": 8684,
  ".equal": 8685,
  "ĉĠĠĠĠĠ": 8686,
  "Ġweather": 8687,
  ".game": 8688,
  "Ġdestination": 8689,
  "_USER": 8690,
  "iece": 8691,
  "Ġprovider": 8692,
  ".last": 8693,
  "plex": 8694,
  "Note": 8695,
  "/js": 8696,
  "Ġplanning": 8697,
  "attribute": 8698,
  "PRO": 8699,
  "atches": 8700,
  "Ġ<-": 8701,
  "Ġseeing": 8702,
  "Ġcancel": 8703,
  "_ind": 8704,
  ".keys": 8705,
  "Ġvisual": 8706,
  "ĠCurrent": 8707,
  "ĠCollege": 8708,
  "ĠRock": 8709,
  "Ġagreement": 8710,
  "ĠStore": 8711,
  "oving": 8712,
  "Ġcorner": 8713,
  "ampions": 8714,
  "ISE": 8715,
  "Fin": 8716,
  "Ġprotection": 8717,
  "Ġfi": 8718,
  "Play": 8719,
  "plugin": 8720,
  ")}": 8721,
  ".frame": 8722,
  "-z": 8723,
  "Ġtransition": 8724,
  "igin": 8725,
  "Ġcandidate": 8726,
  "ĠUnion": 8727,
  "_values": 8728,
  "(map": 8729,
  "cle": 8730,
  "Ġtrend": 8731,
  "wide": 8732,
  "aren": 8733,
  "Loc": 8734,
  "UTH": 8735,
  "ĠBay": 8736,
  "Ġsmaller": 8737,
  "ius": 8738,
  "well": 8739,
  "Ġcriminal": 8740,
  "Ġconflic": 8741,
  "bert": 8742,
  "_INT": 8743,
  "Ġinvestment": 8744,
  "custom": 8745,
  "ĠSession": 8746,
  "_write": 8747,
  "ania": 8748,
  "ĠMass": 8749,
  "_EQ": 8750,
  "_NOT": 8751,
  "Ġviolence": 8752,
  "Argument": 8753,
  "_email": 8754,
  "Ġbelong": 8755,
  "_function": 8756,
  "Ġenemy": 8757,
  "ema": 8758,
  "ĠAddress": 8759,
  ".empty": 8760,
  "Ġinner": 8761,
  "ĠContact": 8762,
  "Loader": 8763,
  "<input": 8764,
  "ĠCA": 8765,
  "lot": 8766,
  "Ġpictures": 8767,
  "ĠSupport": 8768,
  "_names": 8769,
  "Layer": 8770,
  "ĠClick": 8771,
  "Sum": 8772,
  "ĠLook": 8773,
  "uous": 8774,
  "Lib": 8775,
  "Flags": 8776,
  "team": 8777,
  "EP": 8778,
  "hat": 8779,
  "override": 8780,
  "apsed": 8781,
  "Ġlabels": 8782,
  "quis": 8783,
  "ĠStream": 8784,
  "_device": 8785,
  "ĠCommit": 8786,
  "(root": 8787,
  "\"}": 8788,
  ".isEmpty": 8789,
  "ĉM": 8790,
  "Ġangle": 8791,
  "ĠBecause": 8792,
  "%%%%%%%%": 8793,
  "Ġaim": 8794,
  "Ġstick": 8795,
  "stmt": 8796,
  "agraph": 8797,
  "answer": 8798,
  "Ġclin": 8799,
  "ĠIsl": 8800,
  ".ext": 8801,
  "ĠINT": 8802,
  "Ġstyles": 8803,
  "Ġborn": 8804,
  "Ġscr": 8805,
  "Ġexpand": 8806,
  "Ġraised": 8807,
  "TextBox": 8808,
  "ILL": 8809,
  "------------------------------------------------": 8810,
  "HTTP": 8811,
  ">)": 8812,
  "_char": 8813,
  "resource": 8814,
  "Ġepisode": 8815,
  "Ġ'_": 8816,
  "ĠEs": 8817,
  "ĠEarth": 8818,
  "UPDATE": 8819,
  "ĠSou": 8820,
  "uis": 8821,
  "types": 8822,
  "Ġmas": 8823,
  "Ġfav": 8824,
  "Ġconstruct": 8825,
  "_rate": 8826,
  "eras": 8827,
  "roperties": 8828,
  "Ġexternal": 8829,
  "Ġapplied": 8830,
  "Ġprefix": 8831,
  "oted": 8832,
  "lers": 8833,
  "Ġcold": 8834,
  "ĠSP": 8835,
  "ĠChurch": 8836,
  "ĠOutput": 8837,
  "losed": 8838,
  "ificate": 8839,
  "operation": 8840,
  "herit": 8841,
  "xFF": 8842,
  ".env": 8843,
  "_err": 8844,
  "osh": 8845,
  "Direction": 8846,
  "Cancel": 8847,
  "ĠFrank": 8848,
  "Ġfinding": 8849,
  "Ġrouter": 8850,
  "ses": 8851,
  "Ġcrow": 8852,
  "=='": 8853,
  "Ġsand": 8854,
  "Ġrid": 8855,
  "iture": 8856,
  "Ġentre": 8857,
  "Ġobserv": 8858,
  "Ġvac": 8859,
  "-T": 8860,
  "Art": 8861,
  "night": 8862,
  ".search": 8863,
  "Ġexchange": 8864,
  "Ġdistrict": 8865,
  ".os": 8866,
  "Ġdepartment": 8867,
  "Ġdocuments": 8868,
  "Ġcentury": 8869,
  "ĠNext": 8870,
  "Host": 8871,
  "ĠKIND": 8872,
  "Ġsusp": 8873,
  "-P": 8874,
  "rend": 8875,
  ".em": 8876,
  "uite": 8877,
  "isters": 8878,
  "(json": 8879,
  "ĠAnn": 8880,
  "wt": 8881,
  "ati": 8882,
  "ĠHTML": 8883,
  "when": 8884,
  "Directory": 8885,
  "Ġshut": 8886,
  "<a": 8887,
  "edy": 8888,
  "Ġhealthy": 8889,
  "Ġtemperature": 8890,
  "ĠGen": 8891,
  "Ġmetal": 8892,
  "Ġsubmit": 8893,
  "ĠDO": 8894,
  "Ġattract": 8895,
  "ĠWord": 8896,
  "Ġll": 8897,
  "Ġseemed": 8898,
  "ko": 8899,
  "IED": 8900,
  "Ġlabor": 8901,
  ".Context": 8902,
  "Ġasset": 8903,
  "you": 8904,
  "Ġcars": 8905,
  "ĠColumn": 8906,
  "Ġsquare": 8907,
  "ĠNSString": 8908,
  "apes": 8909,
  "Ġthanks": 8910,
  "(props": 8911,
  "Ġtick": 8912,
  "Ġexperiment": 8913,
  "Ġprison": 8914,
  "tree": 8915,
  "-text": 8916,
  "ĠIOException": 8917,
  "-width": 8918,
  "_STATUS": 8919,
  "fast": 8920,
  "-body": 8921,
  "-header": 8922,
  "Ġguar": 8923,
  "crete": 8924,
  "ĠTim": 8925,
  "Ġclearly": 8926,
  "ĠRepublican": 8927,
  "Ġjustify": 8928,
  "ĉĠĠĠĠ": 8929,
  "cache": 8930,
  ";//": 8931,
  "Ġpresence": 8932,
  "Ġfactors": 8933,
  "Ġemployee": 8934,
  "]))": 8935,
  "Member": 8936,
  "Ġselector": 8937,
  "bor": 8938,
  "ĠMex": 8939,
  "utex": 8940,
  "_tag": 8941,
  "ailure": 8942,
  "ĠNet": 8943,
  "Ġreli": 8944,
  "EG": 8945,
  "Ġfprintf": 8946,
  "Ġteen": 8947,
  "loss": 8948,
  "Ġleaving": 8949,
  "Delegate": 8950,
  "Ġbeat": 8951,
  "Ġminute": 8952,
  "subscribe": 8953,
  "Ġredistribute": 8954,
  "Constants": 8955,
  "Ġcancer": 8956,
  "/{": 8957,
  "BL": 8958,
  "Ġspan": 8959,
  "ĠChild": 8960,
  "Center": 8961,
  "Ġearth": 8962,
  "YS": 8963,
  "ĠLevel": 8964,
  "Ġsea": 8965,
  ".support": 8966,
  ".inner": 8967,
  ".Item": 8968,
  "illing": 8969,
  "ĠĠĠĠĊĠĠĠĠĊ": 8970,
  "ĠLabel": 8971,
  "ĠEst": 8972,
  "(arg": 8973,
  "boBox": 8974,
  "ĉforeach": 8975,
  "cos": 8976,
  "Failed": 8977,
  "swers": 8978,
  "Editor": 8979,
  "ront": 8980,
  "ĠMP": 8981,
  "expr": 8982,
  "ĠLife": 8983,
  "Ġ??": 8984,
  "Ġattend": 8985,
  "ĠQue": 8986,
  "Ġspecies": 8987,
  "-D": 8988,
  "Ġaus": 8989,
  "Struct": 8990,
  "Ġadvantage": 8991,
  "oston": 8992,
  "-block": 8993,
  "initial": 8994,
  "CRE": 8995,
  "Ġtruly": 8996,
  "Ġcompare": 8997,
  "orney": 8998,
  "Ġspect": 8999,
  "Full": 9000,
  "bes": 9001,
  "Ġvisible": 9002,
  "Ġmess": 9003,
  "stances": 9004,
  "Ġcloud": 9005,
  "_version": 9006,
  "Ġfurn": 9007,
  "icago": 9008,
  "LOW": 9009,
  "Ġtraffic": 9010,
  "Ġfol": 9011,
  "rypto": 9012,
  "Ġdeclar": 9013,
  "Ġslot": 9014,
  "ĠExt": 9015,
  "ĠEngland": 9016,
  "ĠUnder": 9017,
  "Ġta": 9018,
  "letter": 9019,
  "Ġofficer": 9020,
  "ĠDonald": 9021,
  "Yes": 9022,
  "_json": 9023,
  "ITableView": 9024,
  "ĠUSE": 9025,
  "mployee": 9026,
  "Ġopinion": 9027,
  "ĠAut": 9028,
  "border": 9029,
  "Ġadvice": 9030,
  "Ġautomatically": 9031,
  "isco": 9032,
  "Ġmm": 9033,
  ".vis": 9034,
  "aml": 9035,
  "Ġinitialize": 9036,
  "Ġ({": 9037,
  "Ġgeneration": 9038,
  "Ġbits": 9039,
  "clipse": 9040,
  "Ġunf": 9041,
  "utors": 9042,
  "plt": 9043,
  "Ġdelta": 9044,
  "estroy": 9045,
  "isis": 9046,
  "<br": 9047,
  "Ġlimitations": 9048,
  "Ġended": 9049,
  "ĠMad": 9050,
  "ilm": 9051,
  "These": 9052,
  "ĠMinister": 9053,
  "Ġchart": 9054,
  "Fragment": 9055,
  "Ġindependent": 9056,
  "Year": 9057,
  "Ġinstr": 9058,
  "Ġtags": 9059,
  "AVE": 9060,
  "ĠArch": 9061,
  "stop": 9062,
  "Progress": 9063,
  "Ġmi": 9064,
  "Ġlearned": 9065,
  "Ge": 9066,
  "Ġhotel": 9067,
  "SM": 9068,
  "TYPE": 9069,
  "Ġcy": 9070,
  "ERSION": 9071,
  "unately": 9072,
  "limit": 9073,
  "sel": 9074,
  "Ġmovies": 9075,
  "Ġsteel": 9076,
  "oz": 9077,
  "gb": 9078,
  "ĠCamp": 9079,
  "site": 9080,
  "ĠLogger": 9081,
  "PLE": 9082,
  ".right": 9083,
  "ĠCore": 9084,
  "Ġmixed": 9085,
  "step": 9086,
  "Ġputs": 9087,
  "super": 9088,
  "Router": 9089,
  ".Http": 9090,
  "lyph": 9091,
  "ĠColors": 9092,
  "Ġandroidx": 9093,
  ".str": 9094,
  "Ġinnov": 9095,
  "Ġdeck": 9096,
  "apers": 9097,
  "](": 9098,
  "continue": 9099,
  "spec": 9100,
  "ĠRoad": 9101,
  "ASH": 9102,
  "iliar": 9103,
  "Ġcontinues": 9104,
  "Ġappoint": 9105,
  "ĠVir": 9106,
  "Ġ?>\"": 9107,
  "Ġbin": 9108,
  "}\",": 9109,
  "going": 9110,
  "each": 9111,
  "BD": 9112,
  "ĠAccess": 9113,
  "Doc": 9114,
  "ĠManagement": 9115,
  "BER": 9116,
  "asket": 9117,
  ".getInstance": 9118,
  "Ġestablished": 9119,
  "socket": 9120,
  "INS": 9121,
  "ĉvirtual": 9122,
  "ĉresult": 9123,
  "READ": 9124,
  "_height": 9125,
  "ĠFont": 9126,
  "_html": 9127,
  "Ġneighbor": 9128,
  "lor": 9129,
  "Ġgather": 9130,
  "Ġidentity": 9131,
  "Ġfab": 9132,
  "padding": 9133,
  "ĠRoute": 9134,
  "Enumerable": 9135,
  "Ġforced": 9136,
  "/jquery": 9137,
  "resents": 9138,
  "_left": 9139,
  ".Param": 9140,
  "ĉthrow": 9141,
  "ĠHam": 9142,
  "Ġeventually": 9143,
  "acer": 9144,
  "pub": 9145,
  "Ġtra": 9146,
  "unique": 9147,
  "del": 9148,
  "ĠFlorida": 9149,
  "ĠClean": 9150,
  "xa": 9151,
  "Ġvalidate": 9152,
  "Visual": 9153,
  "Expression": 9154,
  "_func": 9155,
  "member": 9156,
  "ĉh": 9157,
  "trl": 9158,
  "ĉG": 9159,
  "napshot": 9160,
  "ĠPropTypes": 9161,
  "vin": 9162,
  "owl": 9163,
  "ifies": 9164,
  "Ġ$('.": 9165,
  "ĠContext": 9166,
  "ĠToast": 9167,
  ".Key": 9168,
  "Ġofficers": 9169,
  "/n": 9170,
  "sn": 9171,
  "undefined": 9172,
  ".items": 9173,
  "utow": 9174,
  "amage": 9175,
  "Ġaccounts": 9176,
  "ookie": 9177,
  "Section": 9178,
  "icians": 9179,
  "Ġadvis": 9180,
  "(is": 9181,
  "[:,": 9182,
  "ĠFrance": 9183,
  "Func": 9184,
  "icious": 9185,
  "Ġtok": 9186,
  "Channel": 9187,
  "ĠAD": 9188,
  "_NUM": 9189,
  "Ġtimeout": 9190,
  "lemma": 9191,
  "reme": 9192,
  "uj": 9193,
  ".Al": 9194,
  "uclear": 9195,
  "(os": 9196,
  "(\"<": 9197,
  "fetch": 9198,
  "Ġbal": 9199,
  "Ġguid": 9200,
  "-align": 9201,
  "ĠWrite": 9202,
  "ĠOnce": 9203,
  "utowired": 9204,
  "ODULE": 9205,
  "Ġpitch": 9206,
  "CF": 9207,
  "bytes": 9208,
  "ĠCommission": 9209,
  "Ġincred": 9210,
  "PER": 9211,
  "_response": 9212,
  "ĠLos": 9213,
  "parser": 9214,
  "Ġassume": 9215,
  ".Request": 9216,
  "ĠToken": 9217,
  "_position": 9218,
  "Ġnom": 9219,
  "-term": 9220,
  "Ġremaining": 9221,
  "iostream": 9222,
  "Ġpieces": 9223,
  "apy": 9224,
  "ĠLess": 9225,
  "range": 9226,
  "umbn": 9227,
  "prise": 9228,
  "_option": 9229,
  "Impl": 9230,
  "kwargs": 9231,
  "Ġbusinesses": 9232,
  "Alert": 9233,
  "Ġparties": 9234,
  "ĠContainer": 9235,
  "ĠPrivate": 9236,
  "ĠPlan": 9237,
  "Ġregistered": 9238,
  "Ġjour": 9239,
  "acker": 9240,
  "/>": 9241,
  "chat": 9242,
  "sect": 9243,
  "Ġcreation": 9244,
  "olutely": 9245,
  "Ġinstant": 9246,
  "Ġdelivery": 9247,
  "icken": 9248,
  "yes": 9249,
  "ĠFranc": 9250,
  "bling": 9251,
  "enda": 9252,
  "[(": 9253,
  "_range": 9254,
  "ĠĠĠĠĠĠĠĠĠĠĠĠĠĠĠĠĠĠĠĠĠĠĠĠĠĠĠĠĠĠĠĠĠĠ": 9255,
  "Ġschedule": 9256,
  "Conn": 9257,
  "Ġthank": 9258,
  "xd": 9259,
  "Ġhook": 9260,
  "Ġdocumentation": 9261,
  "Parameters": 9262,
  "Hello": 9263,
  "vt": 9264,
  "Ġarticles": 9265,
  "Ġwest": 9266,
  "defined": 9267,
  ".select": 9268,
  "okens": 9269,
  "ĠVAL": 9270,
  ".file": 9271,
  "reset": 9272,
  "Ġmys": 9273,
  "ĠMA": 9274,
  "]),": 9275,
  "Ġcities": 9276,
  "related": 9277,
  "Ġappeared": 9278,
  "Ġwid": 9279,
  ".panel": 9280,
  "ĠIns": 9281,
  ".entity": 9282,
  "Ġdecre": 9283,
  "ĠLou": 9284,
  "(time": 9285,
  "ĠThank": 9286,
  ".createElement": 9287,
  "Ġmentioned": 9288,
  "ounce": 9289,
  "ĠTry": 9290,
  "ĠWall": 9291,
  "/images": 9292,
  "ĠMenu": 9293,
  "ĠEr": 9294,
  "Ġcritic": 9295,
  "ĠYear": 9296,
  "(param": 9297,
  "Ġflo": 9298,
  "NN": 9299,
  "ooter": 9300,
  "ĠAff": 9301,
  "\"github": 9302,
  "rooms": 9303,
  "Ġhyp": 9304,
  "global": 9305,
  "Ġavec": 9306,
  "Ġcompletion": 9307,
  "Ġcond": 9308,
  "onymous": 9309,
  "(temp": 9310,
  "Ġstars": 9311,
  "Ġrelevant": 9312,
  "Ġcovered": 9313,
  "Ġelim": 9314,
  "_types": 9315,
  "(bool": 9316,
  "Ġtu": 9317,
  "_exists": 9318,
  "Ġsecure": 9319,
  "Ġstored": 9320,
  "]/": 9321,
  "xF": 9322,
  "ĠController": 9323,
  "Ġmigr": 9324,
  "MI": 9325,
  "ĠDen": 9326,
  "Ġannual": 9327,
  "UIL": 9328,
  "-and": 9329,
  "Ġcrime": 9330,
  "bel": 9331,
  "Ġkitchen": 9332,
  "@g": 9333,
  "_ph": 9334,
  "ournament": 9335,
  "ĠSocial": 9336,
  "ĠSpecial": 9337,
  "logger": 9338,
  "Ġtail": 9339,
  "Ġunknown": 9340,
  "ded": 9341,
  "Ġapprec": 9342,
  "(db": 9343,
  "cf": 9344,
  "Ġassign": 9345,
  "-out": 9346,
  "ĠMont": 9347,
  "dp": 9348,
  "widget": 9349,
  "Ġstone": 9350,
  "-primary": 9351,
  ".grid": 9352,
  "Results": 9353,
  "azz": 9354,
  "Ġdaughter": 9355,
  "Ġcurr": 9356,
  "Ġlin": 9357,
  "Ġsouth": 9358,
  "forms": 9359,
  "ĠOUT": 9360,
  "lette": 9361,
  "aks": 9362,
  "igure": 9363,
  "ĠEU": 9364,
  "variable": 9365,
  "Ġbrief": 9366,
  "ĠScott": 9367,
  "Ġconference": 9368,
  "anda": 9369,
  "_lock": 9370,
  "oral": 9371,
  "Ġeine": 9372,
  "ORS": 9373,
  "////////////////////////////////////////////////////////////////": 9374,
  "esso": 9375,
  "Ġris": 9376,
  "Ġgender": 9377,
  "estic": 9378,
  "License": 9379,
  "(out": 9380,
  "Ġms": 9381,
  "See": 9382,
  "Ġwilling": 9383,
  "aze": 9384,
  "Ġsports": 9385,
  "Ġyes": 9386,
  "lu": 9387,
  "Ġpurs": 9388,
  "/javascript": 9389,
  "-pro": 9390,
  "navbar": 9391,
  "_product": 9392,
  "/bootstrap": 9393,
  "Ġdriving": 9394,
  "Ġpropos": 9395,
  "ultip": 9396,
  "uplic": 9397,
  ".email": 9398,
  "Ġapprox": 9399,
  "(cl": 9400,
  "Ġwear": 9401,
  "Ġreply": 9402,
  "asset": 9403,
  "Ġice": 9404,
  "Ġtx": 9405,
  "kr": 9406,
  "ĠGermany": 9407,
  "ĠGeorge": 9408,
  "Ġcb": 9409,
  "ĉerr": 9410,
  "Move": 9411,
  "Ġpoly": 9412,
  "voice": 9413,
  "}\"": 9414,
  "Ġanimal": 9415,
  "Av": 9416,
  "ĠLocation": 9417,
  "Ġnative": 9418,
  "][\"": 9419,
  "<double": 9420,
  "Ġmais": 9421,
  ",int": 9422,
  "Ġprepar": 9423,
  "Ġinterval": 9424,
  "plementation": 9425,
  "_ERR": 9426,
  "Ġbug": 9427,
  ">\"": 9428,
  "stat": 9429,
  "<span": 9430,
  "Ġfaith": 9431,
  "Ġrom": 9432,
  "prev": 9433,
  "ĠElect": 9434,
  "Find": 9435,
  "Ġgod": 9436,
  "otor": 9437,
  "//----------------------------------------------------------------": 9438,
  "original": 9439,
  "Cpp": 9440,
  "ĠSenate": 9441,
  "Ġpositions": 9442,
  "Ġweapons": 9443,
  "Ġcoff": 9444,
  "Ġpurposes": 9445,
  "pol": 9446,
  "Ġimpress": 9447,
  "Ġanimals": 9448,
  ".Entity": 9449,
  "(np": 9450,
  "Ġmurder": 9451,
  "Ġ``": 9452,
  "flag": 9453,
  "Ġsolutions": 9454,
  "ĠActive": 9455,
  "Ġbright": 9456,
  ".date": 9457,
  "Ġsitu": 9458,
  ".ID": 9459,
  "Ġsie": 9460,
  "akt": 9461,
  "Space": 9462,
  ".dat": 9463,
  ".indexOf": 9464,
  "han": 9465,
  "azine": 9466,
  "ĠZe": 9467,
  "Ġcrash": 9468,
  "(/": 9469,
  ">=": 9470,
  "iva": 9471,
  ".AutoSize": 9472,
  "ĠLat": 9473,
  "_ext": 9474,
  "Initialize": 9475,
  ".register": 9476,
  "OPY": 9477,
  "Ġreverse": 9478,
  "_dis": 9479,
  "'][": 9480,
  "Ġprompt": 9481,
  "onto": 9482,
  "ĠJournal": 9483,
  "router": 9484,
  "Ġmysqli": 9485,
  "#else": 9486,
  ")\"": 9487,
  "-xs": 9488,
  "lets": 9489,
  "phan": 9490,
  ".LE": 9491,
  "Will": 9492,
  "Ġafford": 9493,
  "Ġskill": 9494,
  "-toggle": 9495,
  "NC": 9496,
  "Bind": 9497,
  "TS": 9498,
  "Just": 9499,
  "iteral": 9500,
  "YP": 9501,
  "ĉunsigned": 9502,
  "Ġwind": 9503,
  "Ġwarning": 9504,
  "ĠWater": 9505,
  "Ġdraft": 9506,
  "Ġcm": 9507,
  "Ġsam": 9508,
  "Ġholding": 9509,
  "zip": 9510,
  "ĠScience": 9511,
  "Ġsupposed": 9512,
  "Gen": 9513,
  "Ġdiet": 9514,
  "<h": 9515,
  "ĠPass": 9516,
  "vi": 9517,
  "Ġhusband": 9518,
  "note": 9519,
  "ĠAbout": 9520,
  "ĠInstitute": 9521,
  "Ġclimate": 9522,
  ".Format": 9523,
  "Ġnut": 9524,
  "ested": 9525,
  "Ġapparent": 9526,
  "Ġholds": 9527,
  "fi": 9528,
  "news": 9529,
  "CM": 9530,
  "video": 9531,
  "':'": 9532,
  "DITION": 9533,
  "ping": 9534,
  "Ġsenior": 9535,
  "wa": 9536,
  "_default": 9537,
  "ĠDatabase": 9538,
  "rep": 9539,
  "ESS": 9540,
  "nergy": 9541,
  ".Find": 9542,
  "_mask": 9543,
  "Ġrise": 9544,
  "Ġkernel": 9545,
  "::$": 9546,
  ".Q": 9547,
  "Ġoffering": 9548,
  "decl": 9549,
  "ĠCS": 9550,
  "Ġlisted": 9551,
  "Ġmostly": 9552,
  "enger": 9553,
  "Ġblocks": 9554,
  "olo": 9555,
  "Ġgoverning": 9556,
  "\\F": 9557,
  "Ġconcent": 9558,
  ".getText": 9559,
  "Ġmb": 9560,
  "Ġoccurred": 9561,
  "Ġchanging": 9562,
  "Scene": 9563,
  "_CODE": 9564,
  "Beh": 9565,
  "\"The": 9566,
  "Ġtile": 9567,
  "ĠAssociation": 9568,
  "ĉP": 9569,
  "alty": 9570,
  "_ad": 9571,
  "odies": 9572,
  "iated": 9573,
  "Ġprepared": 9574,
  "possible": 9575,
  "Ġmort": 9576,
  "TEST": 9577,
  "Ġignore": 9578,
  "Ġcalc": 9579,
  "Ġrs": 9580,
  "ĠassertEquals": 9581,
  "Ġsz": 9582,
  "ĠTHIS": 9583,
  "Ġcanvas": 9584,
  "java": 9585,
  "Ġdut": 9586,
  "VALID": 9587,
  ".sql": 9588,
  ".input": 9589,
  "Ġaux": 9590,
  "Sup": 9591,
  "Ġartist": 9592,
  "Vec": 9593,
  "_TIME": 9594,
  ".stringify": 9595,
  "etween": 9596,
  "ĠCategory": 9597,
  "Ġ[-": 9598,
  "ĠDevExpress": 9599,
  "ĠJul": 9600,
  "Ġring": 9601,
  ".ed": 9602,
  "YY": 9603,
  "Let": 9604,
  "TextField": 9605,
  "Ġflat": 9606,
  "_print": 9607,
  "ĠOTHER": 9608,
  "adian": 9609,
  "Ġchecked": 9610,
  "ele": 9611,
  "Align": 9612,
  "standing": 9613,
  "Ġ[],": 9614,
  "Ġlab": 9615,
  "ucky": 9616,
  "ĠChristmas": 9617,
  "(image": 9618,
  ".module": 9619,
  "Ġlots": 9620,
  "Ġslightly": 9621,
  "(final": 9622,
  "erge": 9623,
  "ĠPolice": 9624,
  "ĠRight": 9625,
  "Ġaward": 9626,
  "ĠOS": 9627,
  "Ġptr": 9628,
  "oves": 9629,
  "icated": 9630,
  "Ġmanage": 9631,
  "oliday": 9632,
  "Amount": 9633,
  "oolStrip": 9634,
  "tbody": 9635,
  "Nav": 9636,
  "wrap": 9637,
  "BB": 9638,
  "Ġwatching": 9639,
  "arios": 9640,
  "Ġoptional": 9641,
  "_K": 9642,
  "ĠLicensed": 9643,
  ".Map": 9644,
  "Timer": 9645,
  "ĠAP": 9646,
  "ĠRev": 9647,
  "(o": 9648,
  ",c": 9649,
  "umin": 9650,
  "etailed": 9651,
  "ĠHy": 9652,
  "Ġblank": 9653,
  "agger": 9654,
  "ĠSelf": 9655,
  "()[": 9656,
  ".make": 9657,
  "earn": 9658,
  "channel": 9659,
  "<pre": 9660,
  "blem": 9661,
  "_password": 9662,
  "_sp": 9663,
  "icing": 9664,
  "ez": 9665,
  "Ġtheory": 9666,
  "ĠTer": 9667,
  ",n": 9668,
  "logo": 9669,
  "ĠHTTP": 9670,
  "()))": 9671,
  ".handle": 9672,
  "World": 9673,
  "Ġpython": 9674,
  "Ġlif": 9675,
  "Ġtrav": 9676,
  "Ġconven": 9677,
  "company": 9678,
  "ĠClub": 9679,
  "Ver": 9680,
  "Btn": 9681,
  "Ġzone": 9682,
  "products": 9683,
  "ĠEduc": 9684,
  "Ġverify": 9685,
  "ĠMil": 9686,
  "ono": 9687,
  "ENCE": 9688,
  "Ġpacket": 9689,
  "Ġcer": 9690,
  "Ġenumer": 9691,
  "Ġpars": 9692,
  "formed": 9693,
  "Ġoccup": 9694,
  "tre": 9695,
  "Ġexercise": 9696,
  "Day": 9697,
  "_sum": 9698,
  "Ġasking": 9699,
  "aption": 9700,
  "Ġorders": 9701,
  "Ġspending": 9702,
  "ĠERR": 9703,
  ".Dis": 9704,
  "ĠUtil": 9705,
  "\\'": 9706,
  "?)": 9707,
  "Ġemot": 9708,
  "Ġinfluence": 9709,
  "ĠAfrica": 9710,
  "atters": 9711,
  ".session": 9712,
  "Ġchief": 9713,
  "ĉĉĉĉĉĉĉĉĉĉĉ": 9714,
  "Ġtom": 9715,
  "cluded": 9716,
  "serial": 9717,
  "_handler": 9718,
  ".Type": 9719,
  "aped": 9720,
  "Ġpolicies": 9721,
  "-ex": 9722,
  "-tr": 9723,
  "blank": 9724,
  "merce": 9725,
  "Ġcoverage": 9726,
  "Ġrc": 9727,
  "_matrix": 9728,
  "_box": 9729,
  "Ġcharges": 9730,
  "ĠBoston": 9731,
  "Pe": 9732,
  "Ġcircum": 9733,
  "Ġfilled": 9734,
  "Ġnorth": 9735,
  "ictureBox": 9736,
  "ĉres": 9737,
  "Ġtermin": 9738,
  "IRECT": 9739,
  "Ġber": 9740,
  "Ġ\"../../": 9741,
  "retch": 9742,
  ".code": 9743,
  "_col": 9744,
  "ĠGovernment": 9745,
  "Ġargv": 9746,
  "ĠLord": 9747,
  "asi": 9748,
  "Exec": 9749,
  "ĉlet": 9750,
  "vertis": 9751,
  "Ġdiscussion": 9752,
  "enance": 9753,
  "outube": 9754,
  "typeof": 9755,
  "Ġserved": 9756,
  "ĠPut": 9757,
  "ĉx": 9758,
  "Ġsweet": 9759,
  "Before": 9760,
  "ategy": 9761,
  ".of": 9762,
  "ĠMaterial": 9763,
  "Sort": 9764,
  "ONT": 9765,
  "igital": 9766,
  "Why": 9767,
  "Ġsust": 9768,
  "abet": 9769,
  "Ġsegment": 9770,
  "ĠMuslim": 9771,
  "ĠfindViewById": 9772,
  "cut": 9773,
  "_TEXT": 9774,
  "ĠMary": 9775,
  "Ġloved": 9776,
  "Ġlie": 9777,
  "ĠJO": 9778,
  "Ġisset": 9779,
  "month": 9780,
  "Ġprime": 9781,
  "ti": 9782,
  "ĠCarol": 9783,
  "Use": 9784,
  "ĠPop": 9785,
  "ĠSave": 9786,
  "Interval": 9787,
  "execute": 9788,
  "dy": 9789,
  "ĠIran": 9790,
  "_cont": 9791,
  "ĉT": 9792,
  "Ġphase": 9793,
  "checkbox": 9794,
  "week": 9795,
  "Ġhide": 9796,
  "Ġtil": 9797,
  "Ġju": 9798,
  "Custom": 9799,
  "burg": 9800,
  "/M": 9801,
  "TON": 9802,
  "Ġquant": 9803,
  "Ġrub": 9804,
  "ixels": 9805,
  "Ġinstalled": 9806,
  "Ġdump": 9807,
  "Ġproperly": 9808,
  "(List": 9809,
  "Ġdecide": 9810,
  "apply": 9811,
  "Has": 9812,
  "Ġkeeping": 9813,
  "Ġcitizens": 9814,
  "Ġjoint": 9815,
  "pool": 9816,
  "Socket": 9817,
  "_op": 9818,
  "Ġweapon": 9819,
  "gnore": 9820,
  "ĠExec": 9821,
  "otten": 9822,
  "ĠMS": 9823,
  "Ġ(-": 9824,
  "ĠReview": 9825,
  "Ġexamples": 9826,
  "Ġtight": 9827,
  "!(": 9828,
  "DP": 9829,
  "ĠMessageBox": 9830,
  "Ġphotograph": 9831,
  "URI": 9832,
  "low": 9833,
  "ĠGrand": 9834,
  ".persistence": 9835,
  "Ġmaintain": 9836,
  "Ġnums": 9837,
  "Ġzip": 9838,
  "ials": 9839,
  "ĠGets": 9840,
  "peg": 9841,
  "ĠBuffer": 9842,
  "~~~~": 9843,
  "rastructure": 9844,
  "ĠPL": 9845,
  "uen": 9846,
  "obby": 9847,
  "sizeof": 9848,
  "Ġpic": 9849,
  "Ġseed": 9850,
  "Ġexperienced": 9851,
  "Ġodd": 9852,
  "Ġkick": 9853,
  "Ġprocedure": 9854,
  "avigator": 9855,
  "-on": 9856,
  ",j": 9857,
  "ĠAlthough": 9858,
  "ĠuserId": 9859,
  "accept": 9860,
  "Blue": 9861,
  "IColor": 9862,
  "layer": 9863,
  "available": 9864,
  "Ġends": 9865,
  ".table": 9866,
  "Ġdataset": 9867,
  "bus": 9868,
  "Ġexplain": 9869,
  "(pro": 9870,
  "ĠCommittee": 9871,
  "Ġnoted": 9872,
  "Dim": 9873,
  "stdio": 9874,
  "_source": 9875,
  "ĠWeek": 9876,
  "ĠEdge": 9877,
  "Ġoperating": 9878,
  "Ġeste": 9879,
  "ipl": 9880,
  "agination": 9881,
  "Ġproceed": 9882,
  "Ġanimation": 9883,
  ".Models": 9884,
  "ĠWatch": 9885,
  "iat": 9886,
  "Ġoppon": 9887,
  "/A": 9888,
  "Report": 9889,
  "Ġsounds": 9890,
  "_buf": 9891,
  "IELD": 9892,
  "Ġbund": 9893,
  "ĉget": 9894,
  ".pr": 9895,
  "(tmp": 9896,
  "Ġkid": 9897,
  "Ġyang": 9898,
  "NotFound": 9899,
  "math": 9900,
  "@gmail": 9901,
  "ĠLIMIT": 9902,
  "redients": 9903,
  "Ġvent": 9904,
  "avigate": 9905,
  "Look": 9906,
  "Ġreligious": 9907,
  "Ġrand": 9908,
  "rio": 9909,
  "(GL": 9910,
  "_ip": 9911,
  "uan": 9912,
  "iciency": 9913,
  "ĠChange": 9914,
  "ĠEntity": 9915,
  "Ġrencontre": 9916,
  "ĠRet": 9917,
  "plan": 9918,
  "BOOL": 9919,
  "uries": 9920,
  "train": 9921,
  "Definition": 9922,
  "============": 9923,
  "zz": 9924,
  "Animation": 9925,
  "ĠOK": 9926,
  "_menu": 9927,
  ".bl": 9928,
  "_score": 9929,
  "Ġacad": 9930,
  "(System": 9931,
  "Ġrefresh": 9932,
  "'=>$": 9933,
  ".Graphics": 9934,
  "amento": 9935,
  "pid": 9936,
  "tc": 9937,
  "Ġtips": 9938,
  "Ġhomes": 9939,
  "Ġfuel": 9940,
  "_helper": 9941,
  "ĠĠčĊ": 9942,
  "ĠRoom": 9943,
  ".Close": 9944,
  "_attr": 9945,
  "ĠMount": 9946,
  "ĠEv": 9947,
  "arser": 9948,
  "_top": 9949,
  "eah": 9950,
  "ĠDelete": 9951,
  "uke": 9952,
  "Ġusage": 9953,
  "aria": 9954,
  "_dev": 9955,
  "Ġtexture": 9956,
  "Ġconversation": 9957,
  "eper": 9958,
  "Bean": 9959,
  "done": 9960,
  "nonatomic": 9961,
  "ĠSecond": 9962,
  "Ġshooting": 9963,
  "_pre": 9964,
  "Components": 9965,
  "__,": 9966,
  "stitution": 9967,
  ".Char": 9968,
  "Ġpresented": 9969,
  "Ġwa": 9970,
  "oker": 9971,
  "iner": 9972,
  "Ġbecoming": 9973,
  "Ġincident": 9974,
  "Att": 9975,
  "Ġrevealed": 9976,
  "forc": 9977,
  "Ġboot": 9978,
  ".page": 9979,
  "Enumerator": 9980,
  "_->": 9981,
  "Photo": 9982,
  "Ġspring": 9983,
  ".\",": 9984,
  "ĠDictionary": 9985,
  "BJECT": 9986,
  "Ġlocations": 9987,
  "Ġsamples": 9988,
  "InputStream": 9989,
  "ĠBrown": 9990,
  "Ġstats": 9991,
  "quality": 9992,
  "-dis": 9993,
  "Ġhelping": 9994,
  "Ġped": 9995,
  "(se": 9996,
  "ĠWho": 9997,
  "alian": 9998,
  "internal": 9999,
  "Ġft": 10000,
  ">().": 10001,
  "->{": 10002,
  "Ġmine": 10003,
  "Ġsector": 10004,
  "Ġgro": 10005,
  "Ġopportunities": 10006,
  "Ġmp": 10007,
  "Ġalleged": 10008,
  "Ġdoubt": 10009,
  "Mouse": 10010,
  "About": 10011,
  "_part": 10012,
  "Ġchair": 10013,
  "Ġstopped": 10014,
  "loop": 10015,
  "entities": 10016,
  "Ġapps": 10017,
  "ansion": 10018,
  "Ġmental": 10019,
  "ĠĠĠĠĠĠĠĠĠĠĠĠĠĠĠĠĠĠĠĠĠĠĠĠĠĠĠĠĠĠĠĠĠĠĠĠĠĠĠĠĠ": 10020,
  "FR": 10021,
  "Ġdefend": 10022,
  "care": 10023,
  "Ġideal": 10024,
  "/api": 10025,
  "urface": 10026,
  "Ġele": 10027,
  "ulator": 10028,
  "ĠRights": 10029,
  "anguages": 10030,
  "Ġfunds": 10031,
  "Ġadapt": 10032,
  "Attributes": 10033,
  "Ġdeploy": 10034,
  "opts": 10035,
  "Ġvalidation": 10036,
  "Ġconcerns": 10037,
  "uce": 10038,
  ".num": 10039,
  "ulture": 10040,
  "ila": 10041,
  "Ġcup": 10042,
  "Ġpure": 10043,
  ".Fore": 10044,
  "ĠHashMap": 10045,
  ".valueOf": 10046,
  "asm": 10047,
  "MO": 10048,
  "Ġcs": 10049,
  "Ġstores": 10050,
  "Ġ************************************************************************": 10051,
  "Ġcommunication": 10052,
  "mem": 10053,
  ".EventHandler": 10054,
  ".Status": 10055,
  "_right": 10056,
  ".setOn": 10057,
  "Sheet": 10058,
  "Ġidentify": 10059,
  "enerated": 10060,
  "ordered": 10061,
  "Ġ\"[": 10062,
  "Ġswe": 10063,
  "Condition": 10064,
  "ĠAccording": 10065,
  "Ġprepare": 10066,
  "Ġrob": 10067,
  "Pool": 10068,
  "Ġsport": 10069,
  "rv": 10070,
  "ĠRouter": 10071,
  "Ġalternative": 10072,
  "([]": 10073,
  "ĠChicago": 10074,
  "ipher": 10075,
  "ische": 10076,
  "ĠDirector": 10077,
  "kl": 10078,
  "ĠWil": 10079,
  "keys": 10080,
  "Ġmysql": 10081,
  "Ġwelcome": 10082,
  "king": 10083,
  "ĠManager": 10084,
  "Ġcaught": 10085,
  "Score": 10086,
  "_PR": 10087,
  "Ġsurvey": 10088,
  "hab": 10089,
  "Headers": 10090,
  "ADER": 10091,
  "Ġdecor": 10092,
  "Ġturns": 10093,
  "Ġradius": 10094,
  "errupt": 10095,
  "Cor": 10096,
  "Ġmel": 10097,
  "Ġintr": 10098,
  "(q": 10099,
  "ĠAC": 10100,
  "amos": 10101,
  "MAX": 10102,
  "ĠGrid": 10103,
  "ĠJesus": 10104,
  "ĠĠĠĠĠĠĠĠĠĠĠĠĠĠĠĠĠĠĠĠĠĠĠĠĠĠĠĠĠĠĠĠĠĠĠĠ": 10105,
  ".DE": 10106,
  "Ġts": 10107,
  "Ġlinked": 10108,
  "free": 10109,
  "ĠQt": 10110,
  "Ġfaster": 10111,
  "ctr": 10112,
  "_J": 10113,
  "DT": 10114,
  ".Check": 10115,
  "Ġcombination": 10116,
  "Ġintended": 10117,
  "-the": 10118,
  "-type": 10119,
  "ectors": 10120,
  "ami": 10121,
  "uting": 10122,
  "Ġuma": 10123,
  "XML": 10124,
  "UCT": 10125,
  "Ap": 10126,
  "ĠRandom": 10127,
  "Ġran": 10128,
  ".sort": 10129,
  "Ġsorted": 10130,
  ".Un": 10131,
  "_PER": 10132,
  "itory": 10133,
  "Ġpriority": 10134,
  "ĠGal": 10135,
  "ĠOld": 10136,
  "hot": 10137,
  "ĠDisplay": 10138,
  "(sub": 10139,
  "_TH": 10140,
  "_Y": 10141,
  "ĠCare": 10142,
  "loading": 10143,
  "Kind": 10144,
  "_handle": 10145,
  ",,": 10146,
  "rase": 10147,
  "_replace": 10148,
  ".addEventListener": 10149,
  "ĠRT": 10150,
  "Ġentered": 10151,
  "gers": 10152,
  "Ġich": 10153,
  "(start": 10154,
  "/app": 10155,
  "Ġbrother": 10156,
  "Memory": 10157,
  "Outlet": 10158,
  "Ġutf": 10159,
  "prec": 10160,
  "Ġnavigation": 10161,
  "ORK": 10162,
  "Ġdst": 10163,
  "Detail": 10164,
  "Ġaudience": 10165,
  "Ġdur": 10166,
  "Ġcluster": 10167,
  "unched": 10168,
  "Ġ],": 10169,
  "Ġcomfortable": 10170,
  ".values": 10171,
  "ĠTotal": 10172,
  "Ġsnap": 10173,
  "Ġstandards": 10174,
  "Ġperformed": 10175,
  "hand": 10176,
  "(\"@": 10177,
  "Ġphil": 10178,
  "ibr": 10179,
  "trim": 10180,
  "Ġforget": 10181,
  "Ġdoctor": 10182,
  ".TextBox": 10183,
  "icons": 10184,
  ",s": 10185,
  "ĠOp": 10186,
  "Sm": 10187,
  "Stop": 10188,
  "ĉList": 10189,
  "ĉu": 10190,
  "Comment": 10191,
  "_VERSION": 10192,
  ".Xtra": 10193,
  "Person": 10194,
  "rb": 10195,
  "LOB": 10196,
  "ĠĠĠĠĠĠĠĠĠĠĠĠĠĠĠĠĠĠĠĠĊ": 10197,
  "ĠCentral": 10198,
  "ICK": 10199,
  "raq": 10200,
  "Ġputting": 10201,
  "Ġmd": 10202,
  "ĠLove": 10203,
  "Program": 10204,
  "Border": 10205,
  "oor": 10206,
  "Ġallowing": 10207,
  "after": 10208,
  "Ġentries": 10209,
  "ĠMaybe": 10210,
  "]).": 10211,
  "ĠShort": 10212,
  ")\\": 10213,
  ".now": 10214,
  "friend": 10215,
  "Ġprefer": 10216,
  "ĠGPIO": 10217,
  "osis": 10218,
  "ĠGameObject": 10219,
  "Ġskip": 10220,
  "Ġcompetition": 10221,
  "_match": 10222,
  "lications": 10223,
  "_CONT": 10224,
  ".groupBox": 10225,
  "Ġals": 10226,
  "\"We": 10227,
  "_eq": 10228,
  "lan": 10229,
  "_search": 10230,
  "ĠMusic": 10231,
  "asis": 10232,
  "Ġbind": 10233,
  "ĠIsland": 10234,
  "rum": 10235,
  "(E": 10236,
  "Ġseat": 10237,
  "Video": 10238,
  "Ġack": 10239,
  "reek": 10240,
  "={()": 10241,
  "Ġrating": 10242,
  "Ġrestaurant": 10243,
  "DEX": 10244,
  "(buf": 10245,
  "pping": 10246,
  "uality": 10247,
  "Ġleague": 10248,
  "Ġfocused": 10249,
  "apon": 10250,
  "$data": 10251,
  "CLUD": 10252,
  "CLUDING": 10253,
  "Ġabsolute": 10254,
  "(query": 10255,
  "Ġtells": 10256,
  "Ang": 10257,
  "Ġcommunities": 10258,
  "Ġhonest": 10259,
  "oking": 10260,
  "Ġapart": 10261,
  "arity": 10262,
  "/$": 10263,
  "_module": 10264,
  "ĠEnc": 10265,
  ".an": 10266,
  ".Config": 10267,
  "Cre": 10268,
  "Ġshock": 10269,
  "ĠArab": 10270,
  "IENT": 10271,
  "/re": 10272,
  "Ġretrie": 10273,
  "ycler": 10274,
  "isa": 10275,
  "ĠOrgan": 10276,
  ".graph": 10277,
  "ĠBAS": 10278,
  "Enum": 10279,
  "Ġpossibly": 10280,
  "ĠJapanese": 10281,
  "Ġcraft": 10282,
  "ĠPlace": 10283,
  "Ġtalent": 10284,
  "Ġfunding": 10285,
  "Ġconfirmed": 10286,
  "Ġcycle": 10287,
  "/x": 10288,
  "GE": 10289,
  "Ġhearing": 10290,
  "Ġplants": 10291,
  "Ġmouth": 10292,
  "pages": 10293,
  "oria": 10294,
  "ĠRemove": 10295,
  "_total": 10296,
  "Ġod": 10297,
  "ollapse": 10298,
  "door": 10299,
  "Ġbought": 10300,
  "Ġaddr": 10301,
  "ARCH": 10302,
  "_dim": 10303,
  "dden": 10304,
  "Ġdecades": 10305,
  "REQUEST": 10306,
  "Ġversions": 10307,
  "fire": 10308,
  "Ġmoves": 10309,
  "fb": 10310,
  "Ġcoffee": 10311,
  ".connect": 10312,
  "ĠRow": 10313,
  "Ġschema": 10314,
  "Scope": 10315,
  "-Type": 10316,
  "Ġfighting": 10317,
  "Ġretail": 10318,
  "Ġmodified": 10319,
  "TF": 10320,
  "Files": 10321,
  "nie": 10322,
  "_command": 10323,
  "stone": 10324,
  "_thread": 10325,
  "Ġbond": 10326,
  "ĠDevelopment": 10327,
  "Ġpt": 10328,
  "FORM": 10329,
  "plet": 10330,
  "Ġidentified": 10331,
  "cpp": 10332,
  "Ġcoding": 10333,
  "oked": 10334,
  "ĠMaster": 10335,
  "IDTH": 10336,
  "Ġresidents": 10337,
  "redit": 10338,
  "ĠPhoto": 10339,
  "=-": 10340,
  "unte": 10341,
  "ateur": 10342,
  "_STATE": 10343,
  "ĠSing": 10344,
  "Ġsheet": 10345,
  ".val": 10346,
  "orse": 10347,
  "Ġhers": 10348,
  "Ġdetermined": 10349,
  "Common": 10350,
  "Ġwed": 10351,
  "_queue": 10352,
  "PH": 10353,
  "ĠAtl": 10354,
  "cred": 10355,
  "/LICENSE": 10356,
  "Ġmes": 10357,
  "Ġadvanced": 10358,
  ".java": 10359,
  ".Sh": 10360,
  "Go": 10361,
  "kill": 10362,
  "fp": 10363,
  "_settings": 10364,
  "Ġpal": 10365,
  "Ġtruck": 10366,
  "Ġcombined": 10367,
  "Ġ\"${": 10368,
  "ĠCorpor": 10369,
  "Ġjoined": 10370,
  "ĠJose": 10371,
  "ĠCup": 10372,
  "uns": 10373,
  "estival": 10374,
  "levision": 10375,
  "Ġbroken": 10376,
  "Ġmarriage": 10377,
  "ĠWestern": 10378,
  "Ġrepresents": 10379,
  "ĠTitle": 10380,
  "Ġss": 10381,
  ".Ass": 10382,
  "ongoose": 10383,
  "iento": 10384,
  "Ġabsolutely": 10385,
  "Ġsmooth": 10386,
  "TERN": 10387,
  "ĠUnless": 10388,
  "Word": 10389,
  "Ġmerge": 10390,
  "igan": 10391,
  "ĠVol": 10392,
  "Ġnn": 10393,
  ".getId": 10394,
  "Ġsexy": 10395,
  "Ġseeking": 10396,
  "Single": 10397,
  ".this": 10398,
  "Ġkom": 10399,
  "bound": 10400,
  ";\"": 10401,
  "ĠfontSize": 10402,
  "_df": 10403,
  "Ġinjury": 10404,
  "(H": 10405,
  "Ġissued": 10406,
  "_END": 10407,
  ":self": 10408,
  "Ġpatch": 10409,
  "Ġleaves": 10410,
  "Ġadopt": 10411,
  "FileName": 10412,
  "Ġexecutive": 10413,
  "ĠByte": 10414,
  "Ġnu": 10415,
  "outing": 10416,
  "cluding": 10417,
  "-R": 10418,
  ".options": 10419,
  "Ġsubstant": 10420,
  "avax": 10421,
  "ĠBUT": 10422,
  "Ġtechnical": 10423,
  "Ġtwice": 10424,
  "Ġunivers": 10425,
  "yr": 10426,
  "Ġdrag": 10427,
  "ĠDC": 10428,
  "Ġsed": 10429,
  "Ġbot": 10430,
  "ĠPal": 10431,
  "ĠHall": 10432,
  "forcement": 10433,
  "Ġauch": 10434,
  ".mod": 10435,
  "notation": 10436,
  "_files": 10437,
  ".line": 10438,
  "_flag": 10439,
  "[name": 10440,
  "Ġresolution": 10441,
  "Ġbott": 10442,
  "(\"[": 10443,
  "ende": 10444,
  "(arr": 10445,
  "Free": 10446,
  "(@\"": 10447,
  "ĠDistrict": 10448,
  "PEC": 10449,
  ":-": 10450,
  "Picker": 10451,
  "ĠJo": 10452,
  "ĠĠĠĠĠĊ": 10453,
  "ĠRiver": 10454,
  "_rows": 10455,
  "Ġhelpful": 10456,
  "Ġmassive": 10457,
  "Ġmeasures": 10458,
  "ĠRuntime": 10459,
  "Ġworry": 10460,
  "ĠSpec": 10461,
  "ĉD": 10462,
  "Ġworse": 10463,
  "(filename": 10464,
  "Ġlay": 10465,
  "Ġmagic": 10466,
  "ĠTheir": 10467,
  "oul": 10468,
  "stroy": 10469,
  "ĠWhere": 10470,
  "Ġsudden": 10471,
  "Ġdefe": 10472,
  "Ġbinding": 10473,
  "Ġflight": 10474,
  "ĠOnInit": 10475,
  "ĠWomen": 10476,
  "ĠPolicy": 10477,
  "Ġdrugs": 10478,
  "ishing": 10479,
  "('../": 10480,
  "ĠMel": 10481,
  "peat": 10482,
  "tor": 10483,
  "Ġproposed": 10484,
  "Ġstated": 10485,
  "_RES": 10486,
  "Ġeast": 10487,
  "ĠCONDITION": 10488,
  "_desc": 10489,
  "Ġwinning": 10490,
  "folio": 10491,
  "Mapper": 10492,
  "ĠPan": 10493,
  "ĠAnge": 10494,
  ".servlet": 10495,
  "Ġcopies": 10496,
  "LM": 10497,
  "Ġvm": 10498,
  "Ġdictionary": 10499,
  "Seg": 10500,
  "elines": 10501,
  "ĠSend": 10502,
  "Ġiron": 10503,
  "ĠFort": 10504,
  ".domain": 10505,
  "Ġdebate": 10506,
  "NotNull": 10507,
  "eq": 10508,
  "acher": 10509,
  "lf": 10510,
  "ĉfmt": 10511,
  "Ġlawy": 10512,
  "ĠMen": 10513,
  "Ġtrim": 10514,
  "(NULL": 10515,
  "Ġ!!": 10516,
  "Ġpad": 10517,
  "Ġfollows": 10518,
  "\"][\"": 10519,
  "requ": 10520,
  "ĠEp": 10521,
  ".github": 10522,
  "(img": 10523,
  "eto": 10524,
  "('\\": 10525,
  "Services": 10526,
  "umbnail": 10527,
  "_main": 10528,
  "pleted": 10529,
  "fortunately": 10530,
  "Ġwindows": 10531,
  "Ġplane": 10532,
  "ĠConnection": 10533,
  ".local": 10534,
  "uard": 10535,
  "}\\": 10536,
  "==\"": 10537,
  "andon": 10538,
  "ĠRoy": 10539,
  "west": 10540,
  "iginal": 10541,
  "emies": 10542,
  "itz": 10543,
  "ĠPeter": 10544,
  "Ġtough": 10545,
  "Ġreduced": 10546,
  "Ġcalculate": 10547,
  "Ġrapid": 10548,
  "customer": 10549,
  "Ġefficient": 10550,
  "Ġmedium": 10551,
  "Ġfell": 10552,
  ".ref": 10553,
  "ĠCas": 10554,
  "Ġfeedback": 10555,
  "Speed": 10556,
  "(output": 10557,
  "aje": 10558,
  "Ġcategories": 10559,
  "Ġfee": 10560,
  "};": 10561,
  "Ġdeleted": 10562,
  "reh": 10563,
  "Ġproof": 10564,
  "Desc": 10565,
  "Build": 10566,
  "Ġsides": 10567,
  ".ArrayList": 10568,
  "-%": 10569,
  "ĠĠĠĠĠĠĠĠĠĠĠĠĠĠĠĠĠĠĠĠĠĠĠĠĠĠĠĠĠĠĠĠĠĠĠĠĠĠ": 10570,
  ".match": 10571,
  "Ġfeels": 10572,
  "Ġachieve": 10573,
  "Ġclim": 10574,
  "_ON": 10575,
  "ĠCD": 10576,
  "Ġteacher": 10577,
  "_current": 10578,
  "bn": 10579,
  "_PL": 10580,
  "isting": 10581,
  "Enable": 10582,
  "GEN": 10583,
  "Ġtv": 10584,
  "Ġsock": 10585,
  "Ġplays": 10586,
  "Ġdiscount": 10587,
  "ĠKE": 10588,
  "ĠDebug": 10589,
  "Fore": 10590,
  "ĠIraq": 10591,
  "Ġappearance": 10592,
  "Mon": 10593,
  "Ġstyled": 10594,
  "ĠHuman": 10595,
  "iot": 10596,
  "ĠHistory": 10597,
  "Ġsac": 10598,
  "ĠCollection": 10599,
  "Ġrecommended": 10600,
  ".Selected": 10601,
  "Ġorganizations": 10602,
  "Ġdiscovered": 10603,
  "cohol": 10604,
  "adas": 10605,
  "ĠThomas": 10606,
  "May": 10607,
  "Ġconserv": 10608,
  "Ġdomin": 10609,
  "ĠFollow": 10610,
  "ĠSection": 10611,
  "ĠThanks": 10612,
  "Username": 10613,
  "Ġrecipe": 10614,
  "Ġwonderful": 10615,
  ".sleep": 10616,
  "_if": 10617,
  "ĉĊĉĊ": 10618,
  "orno": 10619,
  "Ġru": 10620,
  "_target": 10621,
  ".\"\"": 10622,
  "EventArgs": 10623,
  "Ġinputs": 10624,
  "Ġfif": 10625,
  "Ġvision": 10626,
  "cy": 10627,
  "ĠSeries": 10628,
  ")(((": 10629,
  "Ġtrading": 10630,
  "Ġmarker": 10631,
  "Begin": 10632,
  "Ġtypically": 10633,
  "Ġcauses": 10634,
  "dropdown": 10635,
  "_DEBUG": 10636,
  "Ġdetect": 10637,
  "country": 10638,
  "ĉR": 10639,
  "appy": 10640,
  "Ġcref": 10641,
  "('<": 10642,
  "\"=>": 10643,
  "ĠLE": 10644,
  "reader": 10645,
  "Ġadministr": 10646,
  "ucket": 10647,
  "Ġfashion": 10648,
  ".char": 10649,
  "izar": 10650,
  "Ġdisable": 10651,
  "Ġsuc": 10652,
  "ĠLive": 10653,
  "issue": 10654,
  "Ġmetadata": 10655,
  "flags": 10656,
  "Ġcommitted": 10657,
  "Ġva": 10658,
  "Ġrough": 10659,
  "Ġhighlight": 10660,
  "_vars": 10661,
  "VO": 10662,
  "Ġencoding": 10663,
  "-Z": 10664,
  "_sign": 10665,
  "$(\"#": 10666,
  "Ġrain": 10667,
  "reatest": 10668,
  "ĠEND": 10669,
  "Selection": 10670,
  "Ġcandidates": 10671,
  "Ġsav": 10672,
  ".Empty": 10673,
  "Ġdecisions": 10674,
  "Ġcollabor": 10675,
  "ridge": 10676,
  "feed": 10677,
  "ression": 10678,
  "Ġpersons": 10679,
  "VM": 10680,
  "ega": 10681,
  "_BIT": 10682,
  "According": 10683,
  "acked": 10684,
  "Ġdollars": 10685,
  "_loss": 10686,
  "ĠCost": 10687,
  "Notification": 10688,
  "Ġprostit": 10689,
  "Ġauthority": 10690,
  ".rec": 10691,
  "Ġspokes": 10692,
  "ĠToday": 10693,
  "istant": 10694,
  "ĠHead": 10695,
  "ertainment": 10696,
  "cean": 10697,
  "culate": 10698,
  "Ġven": 10699,
  "However": 10700,
  "_arr": 10701,
  "Ġtokens": 10702,
  "Graph": 10703,
  "ĠJud": 10704,
  "ĠVirgin": 10705,
  "ĠSerial": 10706,
  "unning": 10707,
  "Mutable": 10708,
  "agers": 10709,
  ".csv": 10710,
  "Ġdeveloping": 10711,
  "Ġinstructions": 10712,
  "Ġpromise": 10713,
  "Ġrequested": 10714,
  "_encode": 10715,
  "/\"": 10716,
  "ĠIcon": 10717,
  "uilt": 10718,
  "-day": 10719,
  "Ġintelligence": 10720,
  ".IS": 10721,
  "ĠObservable": 10722,
  "ĠHard": 10723,
  "Bool": 10724,
  "idential": 10725,
  ".Anchor": 10726,
  "Ġselling": 10727,
  "CI": 10728,
  "AGES": 10729,
  "tle": 10730,
  "bur": 10731,
  "UFFER": 10732,
  "RY": 10733,
  "Ġbigger": 10734,
  "Ġrat": 10735,
  "Ġfamous": 10736,
  "Ġtypename": 10737,
  "Ġexplained": 10738,
  "Ġnuclear": 10739,
  "-N": 10740,
  "Ġcrisis": 10741,
  "ĠEnter": 10742,
  "Ġanswers": 10743,
  "/${": 10744,
  "/pl": 10745,
  "Ġsequ": 10746,
  "_next": 10747,
  "mask": 10748,
  "Ġstanding": 10749,
  "Ġplenty": 10750,
  "ĠCross": 10751,
  "ĉret": 10752,
  "dro": 10753,
  "ĠCast": 10754,
  "=true": 10755,
  "ĠChris": 10756,
  "icio": 10757,
  "ĠMike": 10758,
  "Decimal": 10759,
  "addComponent": 10760,
  "Len": 10761,
  "Ġcock": 10762,
  "Ġ#{": 10763,
  "URN": 10764,
  "<tr": 10765,
  "Ġauthorities": 10766,
  "Resources": 10767,
  "-H": 10768,
  "Bottom": 10769,
  "_qu": 10770,
  "puter": 10771,
  "esterday": 10772,
  "Dispatch": 10773,
  "since": 10774,
  "Ġfamiliar": 10775,
  ",i": 10776,
  "VC": 10777,
  "Ġment": 10778,
  ",C": 10779,
  "Ġfreedom": 10780,
  "Ġroutes": 10781,
  "ĠBuy": 10782,
  "Ġcommands": 10783,
  "Ġmesh": 10784,
  "/C": 10785,
  "ĠSettings": 10786,
  "-style": 10787,
  "Ġwitness": 10788,
  "Ġcle": 10789,
  "Ġunion": 10790,
  "efault": 10791,
  "aret": 10792,
  "Ġthoughts": 10793,
  "Ġ----": 10794,
  "_process": 10795,
  "_us": 10796,
  "ingly": 10797,
  "UES": 10798,
  "Touch": 10799,
  "_open": 10800,
  "ĠVec": 10801,
  "Ġreward": 10802,
  ".Click": 10803,
  "/:": 10804,
  "Ġnie": 10805,
  "Changes": 10806,
  "Month": 10807,
  "Ġexecution": 10808,
  "Ġbeach": 10809,
  "(Integer": 10810,
  "ĉa": 10811,
  "/'": 10812,
  ".FontStyle": 10813,
  "Ġabort": 10814,
  "ĠSingle": 10815,
  "(isset": 10816,
  "Ġdp": 10817,
  "Ġ}}</": 10818,
  "ĠMa": 10819,
  ".Rows": 10820,
  "ĠPet": 10821,
  "%)": 10822,
  "rand": 10823,
  "Rule": 10824,
  "Ġhel": 10825,
  "RITE": 10826,
  "Ġquiet": 10827,
  "Ġratio": 10828,
  "ĠCONDITIONS": 10829,
  "osoph": 10830,
  "ĠIL": 10831,
  "Ġadvent": 10832,
  "cap": 10833,
  ";</": 10834,
  "ĠUSB": 10835,
  "Driver": 10836,
  "Ġours": 10837,
  "ĠJohnson": 10838,
  ".K": 10839,
  "_delete": 10840,
  ".q": 10841,
  "ĉstr": 10842,
  "/common": 10843,
  "ĉstring": 10844,
  "ĠPDF": 10845,
  "acts": 10846,
  ".Action": 10847,
  "ĠQuery": 10848,
  ".response": 10849,
  "ĠGirl": 10850,
  "Ġprocesses": 10851,
  "<Integer": 10852,
  "imo": 10853,
  "Ġadds": 10854,
  "Ġentirely": 10855,
  "Ġwash": 10856,
  "/************************************************************************": 10857,
  "Ġanimated": 10858,
  "Ġprofit": 10859,
  "encing": 10860,
  "/S": 10861,
  "ĠSym": 10862,
  "Ġmanual": 10863,
  "Download": 10864,
  "Ġ(!$": 10865,
  "Ġmotion": 10866,
  "webpack": 10867,
  "-bottom": 10868,
  "Ġgratuit": 10869,
  "PG": 10870,
  "(:,": 10871,
  "Ġera": 10872,
  "Ġho": 10873,
  "ĠJim": 10874,
  "quir": 10875,
  "ĠBASIS": 10876,
  "DER": 10877,
  "Ġexpensive": 10878,
  "_co": 10879,
  "Bounds": 10880,
  "Well": 10881,
  "ĠDemocratic": 10882,
  ".Rem": 10883,
  "_SY": 10884,
  "names": 10885,
  "ĠVi": 10886,
  "Ġisinstance": 10887,
  "\\\">": 10888,
  "Ġ*=": 10889,
  "ĠPS": 10890,
  "Ġdangerous": 10891,
  "[p": 10892,
  "OME": 10893,
  "Other": 10894,
  "ĠStringBuilder": 10895,
  "Points": 10896,
  "heading": 10897,
  "Ġcurrency": 10898,
  "Ġpercentage": 10899,
  "_API": 10900,
  "Ġclassic": 10901,
  "thead": 10902,
  "ĠMO": 10903,
  "FE": 10904,
  "Idx": 10905,
  "await": 10906,
  "Ġaccident": 10907,
  "Ġvariant": 10908,
  "Ġmyst": 10909,
  "ĠLand": 10910,
  "ĠBre": 10911,
  "Ġharm": 10912,
  "ĠAcc": 10913,
  "Ġcharged": 10914,
  "iones": 10915,
  "Visibility": 10916,
  "arry": 10917,
  "ĠLanguage": 10918,
  "Ġwalking": 10919,
  "ifer": 10920,
  "Ġleadership": 10921,
  ".From": 10922,
  "ynam": 10923,
  "Ġtimestamp": 10924,
  "ipt": 10925,
  "ĠHas": 10926,
  "REFER": 10927,
  "ĠIts": 10928,
  "Ġlistener": 10929,
  "UTE": 10930,
  "_description": 10931,
  "Ġexperiences": 10932,
  "Ġcreates": 10933,
  "RS": 10934,
  "cart": 10935,
  "black": 10936,
  "Ġchoices": 10937,
  "war": 10938,
  "Ġ'''": 10939,
  "Ġordered": 10940,
  "Ġevening": 10941,
  "Ġpil": 10942,
  "Ġtun": 10943,
  "ĠBad": 10944,
  "(app": 10945,
  "random": 10946,
  "Ġexplicit": 10947,
  "Ġarrived": 10948,
  "Ġfly": 10949,
  "Ġeconom": 10950,
  "-mail": 10951,
  "Ġlists": 10952,
  "Ġarchitect": 10953,
  "ĠPay": 10954,
  "Ġds": 10955,
  "ĠSol": 10956,
  "Ġvehicles": 10957,
  "Hz": 10958,
  "-com": 10959,
  "Ġking": 10960,
  "_equal": 10961,
  "ĠHelp": 10962,
  "Ġabuse": 10963,
  "Ġextr": 10964,
  "Ġchemical": 10965,
  "Ġorient": 10966,
  "Ġbreath": 10967,
  "ĠSpace": 10968,
  "(element": 10969,
  "wait": 10970,
  "DED": 10971,
  "igma": 10972,
  "Ġentr": 10973,
  "Ġsob": 10974,
  "-name": 10975,
  "Ġaffected": 10976,
  "ika": 10977,
  "Ġcoal": 10978,
  "_work": 10979,
  "Ġhundreds": 10980,
  "Ġpolitics": 10981,
  "subject": 10982,
  "Ġconsumer": 10983,
  "ANGE": 10984,
  "Ġrepeated": 10985,
  "Send": 10986,
  "Ġ#[": 10987,
  "Ġprotocol": 10988,
  "Ġleads": 10989,
  "useum": 10990,
  "Every": 10991,
  "Import": 10992,
  "(count": 10993,
  "Ġchallenges": 10994,
  "Ġnovel": 10995,
  "Ġdepart": 10996,
  "bits": 10997,
  ".Current": 10998,
  "Ġ`${": 10999,
  "oting": 11000,
  "(\\": 11001,
  "Ġcreative": 11002,
  "Ġbuff": 11003,
  "Ġintroduced": 11004,
  "usic": 11005,
  "modules": 11006,
  "Are": 11007,
  "-doc": 11008,
  "language": 11009,
  "_cache": 11010,
  "Ġtod": 11011,
  "?></": 11012,
  "omething": 11013,
  "Ġhun": 11014,
  "aters": 11015,
  "Intent": 11016,
  "Ġimplemented": 11017,
  "ĠCase": 11018,
  "Children": 11019,
  "Ġnotification": 11020,
  "Renderer": 11021,
  "Wrapper": 11022,
  "Objects": 11023,
  "tl": 11024,
  ".Contains": 11025,
  "Plugin": 11026,
  ".row": 11027,
  "Ġforg": 11028,
  "Ġpermit": 11029,
  "Ġtargets": 11030,
  "ĠIF": 11031,
  "Ġtip": 11032,
  "sex": 11033,
  "Ġsupports": 11034,
  "Ġfold": 11035,
  "photo": 11036,
  "Ġgoogle": 11037,
  "$('#": 11038,
  "Ġsharing": 11039,
  "Ġgoods": 11040,
  "vs": 11041,
  "ĠDan": 11042,
  "Rate": 11043,
  "ĠMartin": 11044,
  "Ġmanner": 11045,
  "lie": 11046,
  ".The": 11047,
  "Internal": 11048,
  "ĠCONTR": 11049,
  "Mock": 11050,
  "RIGHT": 11051,
  "Ġ'{": 11052,
  "Ġcontrols": 11053,
  "Mat": 11054,
  "Ġmand": 11055,
  "Ġextended": 11056,
  "Ok": 11057,
  "Ġembed": 11058,
  "Ġplanet": 11059,
  "ĠNon": 11060,
  "-ch": 11061,
  ")\",": 11062,
  "epar": 11063,
  "Ġbelieved": 11064,
  "ĠEnvironment": 11065,
  "ĠFriend": 11066,
  "-res": 11067,
  "Ġhandling": 11068,
  "nic": 11069,
  "-level": 11070,
  "scri": 11071,
  "Xml": 11072,
  "BE": 11073,
  "ungen": 11074,
  "Ġalter": 11075,
  "[idx": 11076,
  "Pop": 11077,
  "cam": 11078,
  "Ġ(((": 11079,
  "Ġshipping": 11080,
  "Ġbattery": 11081,
  "iddleware": 11082,
  "MC": 11083,
  "Ġimpl": 11084,
  "otation": 11085,
  "ĠLab": 11086,
  "<form": 11087,
  "ĉname": 11088,
  "ĠGames": 11089,
  "ray": 11090,
  "Extra": 11091,
  "Two": 11092,
  "(player": 11093,
  "ĠLes": 11094,
  "Ġcharset": 11095,
  "Ġjourney": 11096,
  "eting": 11097,
  "Ġdin": 11098,
  "Ġperman": 11099,
  "Ġsolve": 11100,
  "Ġlaunched": 11101,
  "Ġnine": 11102,
  "Ġsending": 11103,
  "Ġtelling": 11104,
  ".password": 11105,
  "ĠMatrix": 11106,
  "eric": 11107,
  "Ġgrab": 11108,
  ".u": 11109,
  "ĠLibrary": 11110,
  "Ġdebt": 11111,
  "INK": 11112,
  ".findViewById": 11113,
  "Ġfrequency": 11114,
  ".ad": 11115,
  "_TEST": 11116,
  "Ġnegot": 11117,
  "ĠAfrican": 11118,
  "sender": 11119,
  "Global": 11120,
  "Ġexperts": 11121,
  "Ġdepending": 11122,
  "gray": 11123,
  "Ġjudge": 11124,
  "Ġsentence": 11125,
  "losure": 11126,
  "Ac": 11127,
  "Ġtrace": 11128,
  "Edge": 11129,
  "Ġfriendly": 11130,
  "Ġconcerned": 11131,
  "blog": 11132,
  "Ġclaimed": 11133,
  "}'": 11134,
  "integer": 11135,
  "_tree": 11136,
  "ĉcontinue": 11137,
  "xi": 11138,
  "Ġaccepted": 11139,
  "_one": 11140,
  "ĠEducation": 11141,
  "ublished": 11142,
  "gon": 11143,
  "appoint": 11144,
  "outs": 11145,
  "Ġmining": 11146,
  "Ġsongs": 11147,
  "Ġherself": 11148,
  "Ġgranted": 11149,
  "Ġpassion": 11150,
  "ĠLake": 11151,
  "Ġloan": 11152,
  "uent": 11153,
  "chant": 11154,
  "Ġdetailed": 11155,
  "except": 11156,
  "_cmd": 11157,
  "ĠHE": 11158,
  "Related": 11159,
  "zt": 11160,
  "Ġspecifically": 11161,
  "Static": 11162,
  "Ġcarried": 11163,
  "ANS": 11164,
  "\\\":": 11165,
  "Created": 11166,
  "Ġcul": 11167,
  "]-": 11168,
  "_api": 11169,
  "FP": 11170,
  "Ġsitting": 11171,
  "Ġ\"\")": 11172,
  "ĉgoto": 11173,
  "ĠEqu": 11174,
  "Ġassault": 11175,
  "kins": 11176,
  "ancer": 11177,
  "ogen": 11178,
  "Ġvoters": 11179,
  "ĠProt": 11180,
  "Descriptor": 11181,
  ".Assert": 11182,
  "bsites": 11183,
  "oster": 11184,
  "-menu": 11185,
  "Ġarms": 11186,
  ".Client": 11187,
  ".background": 11188,
  "avity": 11189,
  "Ġvul": 11190,
  "_MASK": 11191,
  "Ġhousing": 11192,
  "Ġbear": 11193,
  "_iter": 11194,
  "pired": 11195,
  "Ġmarkets": 11196,
  "ĠStudent": 11197,
  "Ġticket": 11198,
  "Ġmillions": 11199,
  "flater": 11200,
  ")=": 11201,
  "Ġrecover": 11202,
  "ĠForce": 11203,
  "ĠBoth": 11204,
  "Ġvictim": 11205,
  "ĠDisc": 11206,
  "report": 11207,
  "Ġfourth": 11208,
  "ĠAssembly": 11209,
  "/user": 11210,
  "NullOr": 11211,
  "textarea": 11212,
  "Ġath": 11213,
  "Ġ([": 11214,
  "Ġchannels": 11215,
  "ĠJustice": 11216,
  "choice": 11217,
  "LOBAL": 11218,
  "exec": 11219,
  "emale": 11220,
  "Ġelem": 11221,
  "_le": 11222,
  "Ġresponsibility": 11223,
  "ĠTw": 11224,
  "ICATION": 11225,
  "Ġelseif": 11226,
  "Ġfo": 11227,
  "asts": 11228,
  "Ġtreated": 11229,
  "sen": 11230,
  "ĠVict": 11231,
  "sumer": 11232,
  "_BASE": 11233,
  "Ġast": 11234,
  ">{{": 11235,
  "ĠResource": 11236,
  "ĠStandard": 11237,
  "ĠPrem": 11238,
  "updated": 11239,
  "ivalent": 11240,
  "Ġassets": 11241,
  "_temp": 11242,
  "Ġinterests": 11243,
  "Ġhardware": 11244,
  "ĠRom": 11245,
  "ĠShare": 11246,
  "Ġ*,": 11247,
  "ĠTake": 11248,
  "ĠImages": 11249,
  "_CHECK": 11250,
  "(typeof": 11251,
  "ĠJun": 11252,
  "\\<^": 11253,
  "Ġliqu": 11254,
  "Ġworst": 11255,
  "ymbols": 11256,
  "ĉĉĉĠĠĠ": 11257,
  "Ġdrivers": 11258,
  "ĠDocument": 11259,
  "eno": 11260,
  "ĠTechnology": 11261,
  "Ġapproved": 11262,
  "umps": 11263,
  "Ġsnow": 11264,
  "formance": 11265,
  "_ASSERT": 11266,
  "uits": 11267,
  "Ġdifferences": 11268,
  ".Visible": 11269,
  "ĉĉĉčĊ": 11270,
  "ĠPs": 11271,
  "_fetch": 11272,
  "Ġtodo": 11273,
  "Ġsel": 11274,
  "urers": 11275,
  "invalid": 11276,
  "Ġtweet": 11277,
  "VEL": 11278,
  "Ġresearchers": 11279,
  "Ġsprintf": 11280,
  "ĠRO": 11281,
  "Ġpel": 11282,
  ".Trans": 11283,
  "Ġillegal": 11284,
  "dialog": 11285,
  "smarty": 11286,
  "lg": 11287,
  "_MIN": 11288,
  "Ġhero": 11289,
  "final": 11290,
  "Ġpp": 11291,
  ".Le": 11292,
  "Ġci": 11293,
  "ĉRT": 11294,
  "Ġsuggested": 11295,
  "pdf": 11296,
  "aching": 11297,
  "ĠRo": 11298,
  "ĠProperties": 11299,
  "ĠSi": 11300,
  "Ġbuying": 11301,
  "Ġmu": 11302,
  "Ġlands": 11303,
  "ifiers": 11304,
  "ĠFILE": 11305,
  "ROUP": 11306,
  "Ġholder": 11307,
  "ĠSon": 11308,
  "Ġsympt": 11309,
  ".route": 11310,
  ")?": 11311,
  "Ġargc": 11312,
  "Ġfort": 11313,
  "Ġcasino": 11314,
  "_category": 11315,
  "Ġforum": 11316,
  "prefix": 11317,
  "apture": 11318,
  "Tube": 11319,
  "ems": 11320,
  "imize": 11321,
  "Ġnue": 11322,
  "aus": 11323,
  "course": 11324,
  "ATOR": 11325,
  "()),": 11326,
  "Advertis": 11327,
  "INGS": 11328,
  "Ġacknow": 11329,
  "ĠKorea": 11330,
  "pling": 11331,
  "Ġworker": 11332,
  "PLIED": 11333,
  "hal": 11334,
  "ĠRichard": 11335,
  "Elements": 11336,
  "ĉĉĉĠ": 11337,
  "star": 11338,
  "Ġrelationships": 11339,
  "Ġcheap": 11340,
  "ACH": 11341,
  "ĠXML": 11342,
  ",&": 11343,
  "ĠLouis": 11344,
  "Ġride": 11345,
  "_FAIL": 11346,
  "Ġchunk": 11347,
  "[s": 11348,
  "_OUT": 11349,
  "Ġchosen": 11350,
  "_[": 11351,
  "/(": 11352,
  "ĠJeff": 11353,
  "_sl": 11354,
  "priv": 11355,
  "ĠCanadian": 11356,
  "Ġunable": 11357,
  "_FLAG": 11358,
  "Ġnos": 11359,
  "high": 11360,
  "Ġlift": 11361,
  "fun": 11362,
  "(){": 11363,
  "elly": 11364,
  "yclerView": 11365,
  "_as": 11366,
  "_LIST": 11367,
  "Ġradi": 11368,
  ".getValue": 11369,
  "ĠAngeles": 11370,
  "ĠSpan": 11371,
  "_instance": 11372,
  "itors": 11373,
  "Ġmigration": 11374,
  "AK": 11375,
  "Oh": 11376,
  ".selected": 11377,
  "ĠGT": 11378,
  "Ġadvance": 11379,
  "ĠStyle": 11380,
  ".DataGridView": 11381,
  "ection": 11382,
  "pio": 11383,
  "rog": 11384,
  "Ġshopping": 11385,
  "ĠRect": 11386,
  "Illuminate": 11387,
  "OU": 11388,
  "ĉarray": 11389,
  "Ġsubstantial": 11390,
  "Ġpregn": 11391,
  "Ġpromote": 11392,
  "IEW": 11393,
  ".Layout": 11394,
  "Ġsigns": 11395,
  "/.": 11396,
  "Ġletters": 11397,
  "Board": 11398,
  "ctrl": 11399,
  "\"\\": 11400,
  "ĠJones": 11401,
  "Ġvertex": 11402,
  "Ġja": 11403,
  "Ġaffili": 11404,
  "Ġwealth": 11405,
  "ĉdefault": 11406,
  "Ġsignificantly": 11407,
  "Ġec": 11408,
  "Ġxs": 11409,
  "actual": 11410,
  ".per": 11411,
  "_step": 11412,
  "anvas": 11413,
  "mac": 11414,
  "Ġtransl": 11415,
  "ĠĠĠĠĠĠĠĠĠĠĠĠĠĠĠĠĠĠĠĠĠĠĠĠĠĠĠĠĠĠĠĠĠĠĠĠĠĠĠĠĠĠĠĠĠĠĠĠĠĠĠĠĠĠĠĠĠĠĠ": 11416,
  "Iterator": 11417,
  "Ġoch": 11418,
  "agnostic": 11419,
  "ĠDuring": 11420,
  "ĠDEFAULT": 11421,
  "Ġtill": 11422,
  "Ġsignature": 11423,
  "Ġbird": 11424,
  "ĠOl": 11425,
  "ĠIr": 11426,
  "HS": 11427,
  "avatar": 11428,
  "ESSAGE": 11429,
  "Ġelev": 11430,
  "Ġmt": 11431,
  "ĠNav": 11432,
  "Ġrelax": 11433,
  "Ġplate": 11434,
  "ITEM": 11435,
  "(date": 11436,
  ".not": 11437,
  "Ġgrade": 11438,
  "iences": 11439,
  "High": 11440,
  "ĠDIS": 11441,
  "disabled": 11442,
  "QUI": 11443,
  "Ġnoise": 11444,
  "aux": 11445,
  "ĠUP": 11446,
  "osa": 11447,
  "Ġvoc": 11448,
  "Ġ))": 11449,
  "ocom": 11450,
  "_OFF": 11451,
  "ĠDb": 11452,
  "Lock": 11453,
  ".eclipse": 11454,
  ",d": 11455,
  "ĠDraw": 11456,
  "Ġ\"(": 11457,
  "Ġvisited": 11458,
  "Ġsucceed": 11459,
  "Ġimpossible": 11460,
  "aire": 11461,
  "ĠTurn": 11462,
  "Ġdish": 11463,
  "FG": 11464,
  "Ġsensor": 11465,
  "ANN": 11466,
  "aba": 11467,
  "Ġsurg": 11468,
  "Ġfp": 11469,
  "_an": 11470,
  "-J": 11471,
  "-G": 11472,
  "ĠJob": 11473,
  "Convert": 11474,
  "ĠKEY": 11475,
  "Ġauthors": 11476,
  "_server": 11477,
  "\\r": 11478,
  "Ġ-*-": 11479,
  "flex": 11480,
  "Ġsoc": 11481,
  "Ret": 11482,
  "Ġsalt": 11483,
  "ĠClear": 11484,
  "(page": 11485,
  "-danger": 11486,
  "Ġrooms": 11487,
  "conv": 11488,
  "#{": 11489,
  ".op": 11490,
  "ĠArea": 11491,
  "_SC": 11492,
  "hen": 11493,
  "Ġbegins": 11494,
  "-y": 11495,
  "Ġexcited": 11496,
  "Ġignored": 11497,
  "Ġbonus": 11498,
  "student": 11499,
  "ĠMember": 11500,
  "Ġrelatively": 11501,
  "ĠLow": 11502,
  "ĠProdu": 11503,
  "ateway": 11504,
  "posure": 11505,
  "Ġthick": 11506,
  "aniel": 11507,
  "(view": 11508,
  "ĠCrush": 11509,
  "Extension": 11510,
  "Il": 11511,
  "eed": 11512,
  "LOC": 11513,
  ".im": 11514,
  ".Items": 11515,
  "Ġconflict": 11516,
  ".prevent": 11517,
  "ĠonCreate": 11518,
  "uv": 11519,
  "iser": 11520,
  "Ġwave": 11521,
  "Mar": 11522,
  "ĠCommunity": 11523,
  "iche": 11524,
  "ĠNothing": 11525,
  "[m": 11526,
  "ĠLee": 11527,
  "riends": 11528,
  "!!!": 11529,
  "anz": 11530,
  ".result": 11531,
  "ĠSK": 11532,
  "_PARAM": 11533,
  "Ġdemocr": 11534,
  "BackColor": 11535,
  ".exists": 11536,
  "\"It": 11537,
  "(options": 11538,
  "razy": 11539,
  "aser": 11540,
  "\\Database": 11541,
  "alendar": 11542,
  "_ass": 11543,
  "vertex": 11544,
  "inecraft": 11545,
  "Warning": 11546,
  "argo": 11547,
  "Ġactor": 11548,
  "ĠInstead": 11549,
  "ĠUsing": 11550,
  "Self": 11551,
  "@interface": 11552,
  "Ġspeaking": 11553,
  "ĠParis": 11554,
  "ĠLICENSE": 11555,
  ".node": 11556,
  "ĠFood": 11557,
  "EIF": 11558,
  "ĠBi": 11559,
  ".Start": 11560,
  "ĠIB": 11561,
  "Ġuniversity": 11562,
  "ĠHeader": 11563,
  ".product": 11564,
  "Copy": 11565,
  "etc": 11566,
  "rical": 11567,
  "Ġ>>>": 11568,
  "books": 11569,
  "Ġalgorithm": 11570,
  "Ġ'__": 11571,
  "(javax": 11572,
  "Ġnumerous": 11573,
  "Share": 11574,
  "Have": 11575,
  "Ġrecru": 11576,
  "Ġprove": 11577,
  ".substring": 11578,
  "health": 11579,
  "Ġdecimal": 11580,
  "Ġcommission": 11581,
  "scription": 11582,
  "xC": 11583,
  "Ġsummary": 11584,
  "atted": 11585,
  "Ġcloser": 11586,
  "finished": 11587,
  "ĠWood": 11588,
  "_fields": 11589,
  "ku": 11590,
  "_items": 11591,
  "Flag": 11592,
  "Ġconfidence": 11593,
  "ĠFederal": 11594,
  "dux": 11595,
  "Ġcompat": 11596,
  "Ġvertical": 11597,
  "_manager": 11598,
  "IDE": 11599,
  ":\",": 11600,
  "ĠWay": 11601,
  "Temp": 11602,
  "ĠSTR": 11603,
  "ritten": 11604,
  "Sync": 11605,
  "ĠAV": 11606,
  "ĠCEO": 11607,
  "ĠGuid": 11608,
  "Ġenvironmental": 11609,
  "Ġcorresponding": 11610,
  "ĉconsole": 11611,
  "Ġjustice": 11612,
  "ĠJS": 11613,
  "Ġlived": 11614,
  "gar": 11615,
  "ĠGraph": 11616,
  "ĠStat": 11617,
  "ĠiPhone": 11618,
  ".al": 11619,
  "ĠHD": 11620,
  "Ġoccur": 11621,
  "Ġthreshold": 11622,
  "Ġonclick": 11623,
  "REG": 11624,
  ".GraphicsUnit": 11625,
  "Meta": 11626,
  "Ġcum": 11627,
  ".gnu": 11628,
  "Ġobtained": 11629,
  "Ġcomplaint": 11630,
  "Ġeating": 11631,
  "Ġtar": 11632,
  "_task": 11633,
  "Ġopts": 11634,
  "(to": 11635,
  "Pass": 11636,
  "Ġplastic": 11637,
  "tility": 11638,
  "ĠWin": 11639,
  ".preventDefault": 11640,
  "pile": 11641,
  "ĠGar": 11642,
  "Ġquantity": 11643,
  "_last": 11644,
  "Ġgreatest": 11645,
  "Dao": 11646,
[...]
